import requests
import json
import hashlib

def send_request(url, payload):
    print(f"send request to {url}")
    payload_hash = hashlib.md5(json.dumps(payload, sort_keys=True).encode()).hexdigest()
    print(f"[DEBUG] payload hash: {payload_hash}")
    response = requests.post(
        url,
        json=payload
    )

    print(f"Status: {response.status_code}")
    print(json.dumps(response.json(), indent=2))
    return response.json()

def main():
    print("start")

    url="http://localhost:15000/release_memory_occupation"
    payload={}
    send_request(url, payload)
    print("request0")

    url = "http://localhost:15000/resume_memory_occupation"
    payload={'tags': ['weights']}
    send_request(url, payload)
    print("request1")

    url = "http://localhost:15000/update_weights_from_tensor"
    payload = {'serialized_named_tensors': ['gASV708AAAAAAAB9lCiMEGZsYXR0ZW5lZF90ZW5zb3KUjBxzZ2xhbmcuc3J0LnV0aWxzLnBhdGNoX3RvcmNolIwdX3JlYnVpbGRfY3VkYV90ZW5zb3JfbW9kaWZpZWSUk5QojAV0b3JjaJSMBlRlbnNvcpSTlGgFjARTaXpllJOUSgCs/x+FlIWUUpRLAYWUSwCMDXRvcmNoLnN0b3JhZ2WUjAxUeXBlZFN0b3JhZ2WUk5SMBXRvcmNolIwFdWludDiUk5SMJGJkMGNkYzJmLTNjMzYtZWQ0ZC1iZTQxLWYxZWFmMzM4NzU1YpRDQgJjADgHLQAAAAAWBgAAAAAAAAAAACAAAAAAAAACAAAAAAAeAAAAAP8AAAEDAAAAAAAAZQ/QwVUEAFwAAAAAAAAAAJRKAKz/H0sAiUMYL3RvcmNoXzE1NThfMzY5NDc4NDA4M18wlEsAQ0AWBgAAAAAAAAEAAAAAAAAA/w8AAAAAAAAAAAAAAAAAAAAAAAAAAAAAAAAAAAAAAAAAAAAAAAAAAAAAAAAAAAAAlIh0lFKUjAhtZXRhZGF0YZRdlCiMJHNnbGFuZy5zcnQud2VpZ2h0X3N5bmMudGVuc29yX2J1Y2tldJSMF0ZsYXR0ZW5lZFRlbnNvck1ldGFkYXRhlJOUKYGUfZQojARuYW1llIwRbW9kZWwubm9ybS53ZWlnaHSUjAVzaGFwZZRoCU2AA4WUhZRSlIwFZHR5cGWUaBGMCGJmbG9hdDE2lJOUjAlzdGFydF9pZHiUSwCMB2VuZF9pZHiUTQAHjAVudW1lbJRNAAd1YmgeKYGUfZQoaCGMLm1vZGVsLmxheWVycy4wLnBvc3RfYXR0ZW50aW9uX2xheWVybm9ybS53ZWlnaHSUaCNoCU2AA4WUhZRSlGgnaCloKk0AB2grTQAOaCxNAAd1YmgeKYGUfZQoaCGMI21vZGVsLmxheWVycy4wLm1scC5nYXRlX3Byb2oud2VpZ2h0lGgjaAlNABNNgAOGlIWUUpRoJ2gpaCpNAA5oK0oADoUAaCxKAACFAHViaB4pgZR9lChoIYwhbW9kZWwubGF5ZXJzLjAubWxwLnVwX3Byb2oud2VpZ2h0lGgjaAlNABNNgAOGlIWUUpRoJ2gpaCpKAA6FAGgrSgAOCgFoLEoAAIUAdWJoHimBlH2UKGghjCNtb2RlbC5sYXllcnMuMC5tbHAuZG93bl9wcm9qLndlaWdodJRoI2gJTYADTQAThpSFlFKUaCdoKWgqSgAOCgFoK0oADo8BaCxKAACFAHViaB4pgZR9lChoIYwmbW9kZWwubGF5ZXJzLjAuc2VsZl9hdHRuLm9fcHJvai53ZWlnaHSUaCNoCU2AA02AA4aUhZRSlGgnaCloKkoADo8BaCtKAI6nAWgsSgCAGAB1YmgeKYGUfZQoaCGMJG1vZGVsLmxheWVycy4wLnNlbGZfYXR0bi5xX3Byb2ouYmlhc5RoI2gJTYADhZSFlFKUaCdoKWgqSgCOpwFoK0oAlacBaCxNAAd1YmgeKYGUfZQoaCGMJG1vZGVsLmxheWVycy4wLnNlbGZfYXR0bi5rX3Byb2ouYmlhc5RoI2gJS4CFlIWUUpRoJ2gpaCpKAJWnAWgrSgCWpwFoLE0AAXViaB4pgZR9lChoIYwkbW9kZWwubGF5ZXJzLjAuc2VsZl9hdHRuLnZfcHJvai5iaWFzlGgjaAlLgIWUhZRSlGgnaCloKkoAlqcBaCtKAJenAWgsTQABdWJoHimBlH2UKGghjCVtb2RlbC5sYXllcnMuMC5pbnB1dF9sYXllcm5vcm0ud2VpZ2h0lGgjaAlNgAOFlIWUUpRoJ2gpaCpKAJenAWgrSgCepwFoLE0AB3ViaB4pgZR9lChoIYwmbW9kZWwubGF5ZXJzLjAuc2VsZl9hdHRuLnFfcHJvai53ZWlnaHSUaCNoCU2AA02AA4aUhZRSlGgnaCloKkoAnqcBaCtKAB7AAWgsSgCAGAB1YmgeKYGUfZQoaCGMJm1vZGVsLmxheWVycy4wLnNlbGZfYXR0bi5rX3Byb2oud2VpZ2h0lGgjaAlLgE2AA4aUhZRSlGgnaCloKkoAHsABaCtKAJ7DAWgsSgCAAwB1YmgeKYGUfZQoaCGMJm1vZGVsLmxheWVycy4wLnNlbGZfYXR0bi52X3Byb2oud2VpZ2h0lGgjaAlLgE2AA4aUhZRSlGgnaCloKkoAnsMBaCtKAB7HAWgsSgCAAwB1YmgeKYGUfZQoaCGMLm1vZGVsLmxheWVycy4xLnBvc3RfYXR0ZW50aW9uX2xheWVybm9ybS53ZWlnaHSUaCNoCU2AA4WUhZRSlGgnaCloKkoAHscBaCtKACXHAWgsTQAHdWJoHimBlH2UKGghjCNtb2RlbC5sYXllcnMuMS5tbHAuZ2F0ZV9wcm9qLndlaWdodJRoI2gJTQATTYADhpSFlFKUaCdoKWgqSgAlxwFoK0oAJUwCaCxKAACFAHViaB4pgZR9lChoIYwhbW9kZWwubGF5ZXJzLjEubWxwLnVwX3Byb2oud2VpZ2h0lGgjaAlNABNNgAOGlIWUUpRoJ2gpaCpKACVMAmgrSgAl0QJoLEoAAIUAdWJoHimBlH2UKGghjCNtb2RlbC5sYXllcnMuMS5tbHAuZG93bl9wcm9qLndlaWdodJRoI2gJTYADTQAThpSFlFKUaCdoKWgqSgAl0QJoK0oAJVYDaCxKAACFAHViaB4pgZR9lChoIYwmbW9kZWwubGF5ZXJzLjEuc2VsZl9hdHRuLm9fcHJvai53ZWlnaHSUaCNoCU2AA02AA4aUhZRSlGgnaCloKkoAJVYDaCtKAKVuA2gsSgCAGAB1YmgeKYGUfZQoaCGMJG1vZGVsLmxheWVycy4xLnNlbGZfYXR0bi5xX3Byb2ouYmlhc5RoI2gJTYADhZSFlFKUaCdoKWgqSgClbgNoK0oArG4DaCxNAAd1YmgeKYGUfZQoaCGMJG1vZGVsLmxheWVycy4xLnNlbGZfYXR0bi5rX3Byb2ouYmlhc5RoI2gJS4CFlIWUUpRoJ2gpaCpKAKxuA2grSgCtbgNoLE0AAXViaB4pgZR9lChoIYwkbW9kZWwubGF5ZXJzLjEuc2VsZl9hdHRuLnZfcHJvai5iaWFzlGgjaAlLgIWUhZRSlGgnaCloKkoArW4DaCtKAK5uA2gsTQABdWJoHimBlH2UKGghjCVtb2RlbC5sYXllcnMuMS5pbnB1dF9sYXllcm5vcm0ud2VpZ2h0lGgjaAlNgAOFlIWUUpRoJ2gpaCpKAK5uA2grSgC1bgNoLE0AB3ViaB4pgZR9lChoIYwmbW9kZWwubGF5ZXJzLjEuc2VsZl9hdHRuLnFfcHJvai53ZWlnaHSUaCNoCU2AA02AA4aUhZRSlGgnaCloKkoAtW4DaCtKADWHA2gsSgCAGAB1YmgeKYGUfZQoaCGMJm1vZGVsLmxheWVycy4xLnNlbGZfYXR0bi5rX3Byb2oud2VpZ2h0lGgjaAlLgE2AA4aUhZRSlGgnaCloKkoANYcDaCtKALWKA2gsSgCAAwB1YmgeKYGUfZQoaCGMJm1vZGVsLmxheWVycy4xLnNlbGZfYXR0bi52X3Byb2oud2VpZ2h0lGgjaAlLgE2AA4aUhZRSlGgnaCloKkoAtYoDaCtKADWOA2gsSgCAAwB1YmgeKYGUfZQoaCGML21vZGVsLmxheWVycy4xMC5wb3N0X2F0dGVudGlvbl9sYXllcm5vcm0ud2VpZ2h0lGgjaAlNgAOFlIWUUpRoJ2gpaCpKADWOA2grSgA8jgNoLE0AB3ViaB4pgZR9lChoIYwkbW9kZWwubGF5ZXJzLjEwLm1scC5nYXRlX3Byb2oud2VpZ2h0lGgjaAlNABNNgAOGlIWUUpRoJ2gpaCpKADyOA2grSgA8EwRoLEoAAIUAdWJoHimBlH2UKGghjCJtb2RlbC5sYXllcnMuMTAubWxwLnVwX3Byb2oud2VpZ2h0lGgjaAlNABNNgAOGlIWUUpRoJ2gpaCpKADwTBGgrSgA8mARoLEoAAIUAdWJoHimBlH2UKGghjCRtb2RlbC5sYXllcnMuMTAubWxwLmRvd25fcHJvai53ZWlnaHSUaCNoCU2AA00AE4aUhZRSlGgnaCloKkoAPJgEaCtKADwdBWgsSgAAhQB1YmgeKYGUfZQoaCGMJ21vZGVsLmxheWVycy4xMC5zZWxmX2F0dG4ub19wcm9qLndlaWdodJRoI2gJTYADTYADhpSFlFKUaCdoKWgqSgA8HQVoK0oAvDUFaCxKAIAYAHViaB4pgZR9lChoIYwlbW9kZWwubGF5ZXJzLjEwLnNlbGZfYXR0bi5xX3Byb2ouYmlhc5RoI2gJTYADhZSFlFKUaCdoKWgqSgC8NQVoK0oAwzUFaCxNAAd1YmgeKYGUfZQoaCGMJW1vZGVsLmxheWVycy4xMC5zZWxmX2F0dG4ua19wcm9qLmJpYXOUaCNoCUuAhZSFlFKUaCdoKWgqSgDDNQVoK0oAxDUFaCxNAAF1YmgeKYGUfZQoaCGMJW1vZGVsLmxheWVycy4xMC5zZWxmX2F0dG4udl9wcm9qLmJpYXOUaCNoCUuAhZSFlFKUaCdoKWgqSgDENQVoK0oAxTUFaCxNAAF1YmgeKYGUfZQoaCGMJm1vZGVsLmxheWVycy4xMC5pbnB1dF9sYXllcm5vcm0ud2VpZ2h0lGgjaAlNgAOFlIWUUpRoJ2gpaCpKAMU1BWgrSgDMNQVoLE0AB3ViaB4pgZR9lChoIYwnbW9kZWwubGF5ZXJzLjEwLnNlbGZfYXR0bi5xX3Byb2oud2VpZ2h0lGgjaAlNgANNgAOGlIWUUpRoJ2gpaCpKAMw1BWgrSgBMTgVoLEoAgBgAdWJoHimBlH2UKGghjCdtb2RlbC5sYXllcnMuMTAuc2VsZl9hdHRuLmtfcHJvai53ZWlnaHSUaCNoCUuATYADhpSFlFKUaCdoKWgqSgBMTgVoK0oAzFEFaCxKAIADAHViaB4pgZR9lChoIYwnbW9kZWwubGF5ZXJzLjEwLnNlbGZfYXR0bi52X3Byb2oud2VpZ2h0lGgjaAlLgE2AA4aUhZRSlGgnaCloKkoAzFEFaCtKAExVBWgsSgCAAwB1YmgeKYGUfZQoaCGML21vZGVsLmxheWVycy4xMS5wb3N0X2F0dGVudGlvbl9sYXllcm5vcm0ud2VpZ2h0lGgjaAlNgAOFlIWUUpRoJ2gpaCpKAExVBWgrSgBTVQVoLE0AB3ViaB4pgZR9lChoIYwkbW9kZWwubGF5ZXJzLjExLm1scC5nYXRlX3Byb2oud2VpZ2h0lGgjaAlNABNNgAOGlIWUUpRoJ2gpaCpKAFNVBWgrSgBT2gVoLEoAAIUAdWJoHimBlH2UKGghjCJtb2RlbC5sYXllcnMuMTEubWxwLnVwX3Byb2oud2VpZ2h0lGgjaAlNABNNgAOGlIWUUpRoJ2gpaCpKAFPaBWgrSgBTXwZoLEoAAIUAdWJoHimBlH2UKGghjCRtb2RlbC5sYXllcnMuMTEubWxwLmRvd25fcHJvai53ZWlnaHSUaCNoCU2AA00AE4aUhZRSlGgnaCloKkoAU18GaCtKAFPkBmgsSgAAhQB1YmgeKYGUfZQoaCGMJ21vZGVsLmxheWVycy4xMS5zZWxmX2F0dG4ub19wcm9qLndlaWdodJRoI2gJTYADTYADhpSFlFKUaCdoKWgqSgBT5AZoK0oA0/wGaCxKAIAYAHViaB4pgZR9lChoIYwlbW9kZWwubGF5ZXJzLjExLnNlbGZfYXR0bi5xX3Byb2ouYmlhc5RoI2gJTYADhZSFlFKUaCdoKWgqSgDT/AZoK0oA2vwGaCxNAAd1YmgeKYGUfZQoaCGMJW1vZGVsLmxheWVycy4xMS5zZWxmX2F0dG4ua19wcm9qLmJpYXOUaCNoCUuAhZSFlFKUaCdoKWgqSgDa/AZoK0oA2/wGaCxNAAF1YmgeKYGUfZQoaCGMJW1vZGVsLmxheWVycy4xMS5zZWxmX2F0dG4udl9wcm9qLmJpYXOUaCNoCUuAhZSFlFKUaCdoKWgqSgDb/AZoK0oA3PwGaCxNAAF1YmgeKYGUfZQoaCGMJm1vZGVsLmxheWVycy4xMS5pbnB1dF9sYXllcm5vcm0ud2VpZ2h0lGgjaAlNgAOFlIWUUpRoJ2gpaCpKANz8BmgrSgDj/AZoLE0AB3ViaB4pgZR9lChoIYwnbW9kZWwubGF5ZXJzLjExLnNlbGZfYXR0bi5xX3Byb2oud2VpZ2h0lGgjaAlNgANNgAOGlIWUUpRoJ2gpaCpKAOP8BmgrSgBjFQdoLEoAgBgAdWJoHimBlH2UKGghjCdtb2RlbC5sYXllcnMuMTEuc2VsZl9hdHRuLmtfcHJvai53ZWlnaHSUaCNoCUuATYADhpSFlFKUaCdoKWgqSgBjFQdoK0oA4xgHaCxKAIADAHViaB4pgZR9lChoIYwnbW9kZWwubGF5ZXJzLjExLnNlbGZfYXR0bi52X3Byb2oud2VpZ2h0lGgjaAlLgE2AA4aUhZRSlGgnaCloKkoA4xgHaCtKAGMcB2gsSgCAAwB1YmgeKYGUfZQoaCGML21vZGVsLmxheWVycy4xMi5wb3N0X2F0dGVudGlvbl9sYXllcm5vcm0ud2VpZ2h0lGgjaAlNgAOFlIWUUpRoJ2gpaCpKAGMcB2grSgBqHAdoLE0AB3ViaB4pgZR9lChoIYwkbW9kZWwubGF5ZXJzLjEyLm1scC5nYXRlX3Byb2oud2VpZ2h0lGgjaAlNABNNgAOGlIWUUpRoJ2gpaCpKAGocB2grSgBqoQdoLEoAAIUAdWJoHimBlH2UKGghjCJtb2RlbC5sYXllcnMuMTIubWxwLnVwX3Byb2oud2VpZ2h0lGgjaAlNABNNgAOGlIWUUpRoJ2gpaCpKAGqhB2grSgBqJghoLEoAAIUAdWJoHimBlH2UKGghjCRtb2RlbC5sYXllcnMuMTIubWxwLmRvd25fcHJvai53ZWlnaHSUaCNoCU2AA00AE4aUhZRSlGgnaCloKkoAaiYIaCtKAGqrCGgsSgAAhQB1YmgeKYGUfZQoaCGMJ21vZGVsLmxheWVycy4xMi5zZWxmX2F0dG4ub19wcm9qLndlaWdodJRoI2gJTYADTYADhpSFlFKUaCdoKWgqSgBqqwhoK0oA6sMIaCxKAIAYAHViaB4pgZR9lChoIYwlbW9kZWwubGF5ZXJzLjEyLnNlbGZfYXR0bi5xX3Byb2ouYmlhc5RoI2gJTYADhZSFlFKUaCdoKWgqSgDqwwhoK0oA8cMIaCxNAAd1YmgeKYGUfZQoaCGMJW1vZGVsLmxheWVycy4xMi5zZWxmX2F0dG4ua19wcm9qLmJpYXOUaCNoCUuAhZSFlFKUaCdoKWgqSgDxwwhoK0oA8sMIaCxNAAF1YmgeKYGUfZQoaCGMJW1vZGVsLmxheWVycy4xMi5zZWxmX2F0dG4udl9wcm9qLmJpYXOUaCNoCUuAhZSFlFKUaCdoKWgqSgDywwhoK0oA88MIaCxNAAF1YmgeKYGUfZQoaCGMJm1vZGVsLmxheWVycy4xMi5pbnB1dF9sYXllcm5vcm0ud2VpZ2h0lGgjaAlNgAOFlIWUUpRoJ2gpaCpKAPPDCGgrSgD6wwhoLE0AB3ViaB4pgZR9lChoIYwnbW9kZWwubGF5ZXJzLjEyLnNlbGZfYXR0bi5xX3Byb2oud2VpZ2h0lGgjaAlNgANNgAOGlIWUUpRoJ2gpaCpKAPrDCGgrSgB63AhoLEoAgBgAdWJoHimBlH2UKGghjCdtb2RlbC5sYXllcnMuMTIuc2VsZl9hdHRuLmtfcHJvai53ZWlnaHSUaCNoCUuATYADhpSFlFKUaCdoKWgqSgB63AhoK0oA+t8IaCxKAIADAHViaB4pgZR9lChoIYwnbW9kZWwubGF5ZXJzLjEyLnNlbGZfYXR0bi52X3Byb2oud2VpZ2h0lGgjaAlLgE2AA4aUhZRSlGgnaCloKkoA+t8IaCtKAHrjCGgsSgCAAwB1YmgeKYGUfZQoaCGML21vZGVsLmxheWVycy4xMy5wb3N0X2F0dGVudGlvbl9sYXllcm5vcm0ud2VpZ2h0lGgjaAlNgAOFlIWUUpRoJ2gpaCpKAHrjCGgrSgCB4whoLE0AB3ViaB4pgZR9lChoIYwkbW9kZWwubGF5ZXJzLjEzLm1scC5nYXRlX3Byb2oud2VpZ2h0lGgjaAlNABNNgAOGlIWUUpRoJ2gpaCpKAIHjCGgrSgCBaAloLEoAAIUAdWJoHimBlH2UKGghjCJtb2RlbC5sYXllcnMuMTMubWxwLnVwX3Byb2oud2VpZ2h0lGgjaAlNABNNgAOGlIWUUpRoJ2gpaCpKAIFoCWgrSgCB7QloLEoAAIUAdWJoHimBlH2UKGghjCRtb2RlbC5sYXllcnMuMTMubWxwLmRvd25fcHJvai53ZWlnaHSUaCNoCU2AA00AE4aUhZRSlGgnaCloKkoAge0JaCtKAIFyCmgsSgAAhQB1YmgeKYGUfZQoaCGMJ21vZGVsLmxheWVycy4xMy5zZWxmX2F0dG4ub19wcm9qLndlaWdodJRoI2gJTYADTYADhpSFlFKUaCdoKWgqSgCBcgpoK0oAAYsKaCxKAIAYAHViaB4pgZR9lChoIYwlbW9kZWwubGF5ZXJzLjEzLnNlbGZfYXR0bi5xX3Byb2ouYmlhc5RoI2gJTYADhZSFlFKUaCdoKWgqSgABiwpoK0oACIsKaCxNAAd1YmgeKYGUfZQoaCGMJW1vZGVsLmxheWVycy4xMy5zZWxmX2F0dG4ua19wcm9qLmJpYXOUaCNoCUuAhZSFlFKUaCdoKWgqSgAIiwpoK0oACYsKaCxNAAF1YmgeKYGUfZQoaCGMJW1vZGVsLmxheWVycy4xMy5zZWxmX2F0dG4udl9wcm9qLmJpYXOUaCNoCUuAhZSFlFKUaCdoKWgqSgAJiwpoK0oACosKaCxNAAF1YmgeKYGUfZQoaCGMJm1vZGVsLmxheWVycy4xMy5pbnB1dF9sYXllcm5vcm0ud2VpZ2h0lGgjaAlNgAOFlIWUUpRoJ2gpaCpKAAqLCmgrSgARiwpoLE0AB3ViaB4pgZR9lChoIYwnbW9kZWwubGF5ZXJzLjEzLnNlbGZfYXR0bi5xX3Byb2oud2VpZ2h0lGgjaAlNgANNgAOGlIWUUpRoJ2gpaCpKABGLCmgrSgCRowpoLEoAgBgAdWJoHimBlH2UKGghjCdtb2RlbC5sYXllcnMuMTMuc2VsZl9hdHRuLmtfcHJvai53ZWlnaHSUaCNoCUuATYADhpSFlFKUaCdoKWgqSgCRowpoK0oAEacKaCxKAIADAHViaB4pgZR9lChoIYwnbW9kZWwubGF5ZXJzLjEzLnNlbGZfYXR0bi52X3Byb2oud2VpZ2h0lGgjaAlLgE2AA4aUhZRSlGgnaCloKkoAEacKaCtKAJGqCmgsSgCAAwB1YmgeKYGUfZQoaCGML21vZGVsLmxheWVycy4xNC5wb3N0X2F0dGVudGlvbl9sYXllcm5vcm0ud2VpZ2h0lGgjaAlNgAOFlIWUUpRoJ2gpaCpKAJGqCmgrSgCYqgpoLE0AB3ViaB4pgZR9lChoIYwkbW9kZWwubGF5ZXJzLjE0Lm1scC5nYXRlX3Byb2oud2VpZ2h0lGgjaAlNABNNgAOGlIWUUpRoJ2gpaCpKAJiqCmgrSgCYLwtoLEoAAIUAdWJoHimBlH2UKGghjCJtb2RlbC5sYXllcnMuMTQubWxwLnVwX3Byb2oud2VpZ2h0lGgjaAlNABNNgAOGlIWUUpRoJ2gpaCpKAJgvC2grSgCYtAtoLEoAAIUAdWJoHimBlH2UKGghjCRtb2RlbC5sYXllcnMuMTQubWxwLmRvd25fcHJvai53ZWlnaHSUaCNoCU2AA00AE4aUhZRSlGgnaCloKkoAmLQLaCtKAJg5DGgsSgAAhQB1YmgeKYGUfZQoaCGMJ21vZGVsLmxheWVycy4xNC5zZWxmX2F0dG4ub19wcm9qLndlaWdodJRoI2gJTYADTYADhpSFlFKUaCdoKWgqSgCYOQxoK0oAGFIMaCxKAIAYAHViaB4pgZR9lChoIYwlbW9kZWwubGF5ZXJzLjE0LnNlbGZfYXR0bi5xX3Byb2ouYmlhc5RoI2gJTYADhZSFlFKUaCdoKWgqSgAYUgxoK0oAH1IMaCxNAAd1YmgeKYGUfZQoaCGMJW1vZGVsLmxheWVycy4xNC5zZWxmX2F0dG4ua19wcm9qLmJpYXOUaCNoCUuAhZSFlFKUaCdoKWgqSgAfUgxoK0oAIFIMaCxNAAF1YmgeKYGUfZQoaCGMJW1vZGVsLmxheWVycy4xNC5zZWxmX2F0dG4udl9wcm9qLmJpYXOUaCNoCUuAhZSFlFKUaCdoKWgqSgAgUgxoK0oAIVIMaCxNAAF1YmgeKYGUfZQoaCGMJm1vZGVsLmxheWVycy4xNC5pbnB1dF9sYXllcm5vcm0ud2VpZ2h0lGgjaAlNgAOFlIWUUpRoJ2gpaCpKACFSDGgrSgAoUgxoLE0AB3ViaB4pgZR9lChoIYwnbW9kZWwubGF5ZXJzLjE0LnNlbGZfYXR0bi5xX3Byb2oud2VpZ2h0lGgjaAlNgANNgAOGlIWUUpRoJ2gpaCpKAChSDGgrSgCoagxoLEoAgBgAdWJoHimBlH2UKGghjCdtb2RlbC5sYXllcnMuMTQuc2VsZl9hdHRuLmtfcHJvai53ZWlnaHSUaCNoCUuATYADhpSFlFKUaCdoKWgqSgCoagxoK0oAKG4MaCxKAIADAHViaB4pgZR9lChoIYwnbW9kZWwubGF5ZXJzLjE0LnNlbGZfYXR0bi52X3Byb2oud2VpZ2h0lGgjaAlLgE2AA4aUhZRSlGgnaCloKkoAKG4MaCtKAKhxDGgsSgCAAwB1YmgeKYGUfZQoaCGML21vZGVsLmxheWVycy4xNS5wb3N0X2F0dGVudGlvbl9sYXllcm5vcm0ud2VpZ2h0lGgjaAlNgAOFlIWUUpRoJ2gpaCpKAKhxDGgrSgCvcQxoLE0AB3ViaB4pgZR9lChoIYwkbW9kZWwubGF5ZXJzLjE1Lm1scC5nYXRlX3Byb2oud2VpZ2h0lGgjaAlNABNNgAOGlIWUUpRoJ2gpaCpKAK9xDGgrSgCv9gxoLEoAAIUAdWJoHimBlH2UKGghjCJtb2RlbC5sYXllcnMuMTUubWxwLnVwX3Byb2oud2VpZ2h0lGgjaAlNABNNgAOGlIWUUpRoJ2gpaCpKAK/2DGgrSgCvew1oLEoAAIUAdWJoHimBlH2UKGghjCRtb2RlbC5sYXllcnMuMTUubWxwLmRvd25fcHJvai53ZWlnaHSUaCNoCU2AA00AE4aUhZRSlGgnaCloKkoAr3sNaCtKAK8ADmgsSgAAhQB1YmgeKYGUfZQoaCGMJ21vZGVsLmxheWVycy4xNS5zZWxmX2F0dG4ub19wcm9qLndlaWdodJRoI2gJTYADTYADhpSFlFKUaCdoKWgqSgCvAA5oK0oALxkOaCxKAIAYAHViaB4pgZR9lChoIYwlbW9kZWwubGF5ZXJzLjE1LnNlbGZfYXR0bi5xX3Byb2ouYmlhc5RoI2gJTYADhZSFlFKUaCdoKWgqSgAvGQ5oK0oANhkOaCxNAAd1YmgeKYGUfZQoaCGMJW1vZGVsLmxheWVycy4xNS5zZWxmX2F0dG4ua19wcm9qLmJpYXOUaCNoCUuAhZSFlFKUaCdoKWgqSgA2GQ5oK0oANxkOaCxNAAF1YmgeKYGUfZQoaCGMJW1vZGVsLmxheWVycy4xNS5zZWxmX2F0dG4udl9wcm9qLmJpYXOUaCNoCUuAhZSFlFKUaCdoKWgqSgA3GQ5oK0oAOBkOaCxNAAF1YmgeKYGUfZQoaCGMJm1vZGVsLmxheWVycy4xNS5pbnB1dF9sYXllcm5vcm0ud2VpZ2h0lGgjaAlNgAOFlIWUUpRoJ2gpaCpKADgZDmgrSgA/GQ5oLE0AB3ViaB4pgZR9lChoIYwnbW9kZWwubGF5ZXJzLjE1LnNlbGZfYXR0bi5xX3Byb2oud2VpZ2h0lGgjaAlNgANNgAOGlIWUUpRoJ2gpaCpKAD8ZDmgrSgC/MQ5oLEoAgBgAdWJoHimBlH2UKGghjCdtb2RlbC5sYXllcnMuMTUuc2VsZl9hdHRuLmtfcHJvai53ZWlnaHSUaCNoCUuATYADhpSFlFKUaCdoKWgqSgC/MQ5oK0oAPzUOaCxKAIADAHViaB4pgZR9lChoIYwnbW9kZWwubGF5ZXJzLjE1LnNlbGZfYXR0bi52X3Byb2oud2VpZ2h0lGgjaAlLgE2AA4aUhZRSlGgnaCloKkoAPzUOaCtKAL84DmgsSgCAAwB1YmgeKYGUfZQoaCGML21vZGVsLmxheWVycy4xNi5wb3N0X2F0dGVudGlvbl9sYXllcm5vcm0ud2VpZ2h0lGgjaAlNgAOFlIWUUpRoJ2gpaCpKAL84DmgrSgDGOA5oLE0AB3ViaB4pgZR9lChoIYwkbW9kZWwubGF5ZXJzLjE2Lm1scC5nYXRlX3Byb2oud2VpZ2h0lGgjaAlNABNNgAOGlIWUUpRoJ2gpaCpKAMY4DmgrSgDGvQ5oLEoAAIUAdWJoHimBlH2UKGghjCJtb2RlbC5sYXllcnMuMTYubWxwLnVwX3Byb2oud2VpZ2h0lGgjaAlNABNNgAOGlIWUUpRoJ2gpaCpKAMa9DmgrSgDGQg9oLEoAAIUAdWJoHimBlH2UKGghjCRtb2RlbC5sYXllcnMuMTYubWxwLmRvd25fcHJvai53ZWlnaHSUaCNoCU2AA00AE4aUhZRSlGgnaCloKkoAxkIPaCtKAMbHD2gsSgAAhQB1YmgeKYGUfZQoaCGMJ21vZGVsLmxheWVycy4xNi5zZWxmX2F0dG4ub19wcm9qLndlaWdodJRoI2gJTYADTYADhpSFlFKUaCdoKWgqSgDGxw9oK0oARuAPaCxKAIAYAHViaB4pgZR9lChoIYwlbW9kZWwubGF5ZXJzLjE2LnNlbGZfYXR0bi5xX3Byb2ouYmlhc5RoI2gJTYADhZSFlFKUaCdoKWgqSgBG4A9oK0oATeAPaCxNAAd1YmgeKYGUfZQoaCGMJW1vZGVsLmxheWVycy4xNi5zZWxmX2F0dG4ua19wcm9qLmJpYXOUaCNoCUuAhZSFlFKUaCdoKWgqSgBN4A9oK0oATuAPaCxNAAF1YmgeKYGUfZQoaCGMJW1vZGVsLmxheWVycy4xNi5zZWxmX2F0dG4udl9wcm9qLmJpYXOUaCNoCUuAhZSFlFKUaCdoKWgqSgBO4A9oK0oAT+APaCxNAAF1YmgeKYGUfZQoaCGMJm1vZGVsLmxheWVycy4xNi5pbnB1dF9sYXllcm5vcm0ud2VpZ2h0lGgjaAlNgAOFlIWUUpRoJ2gpaCpKAE/gD2grSgBW4A9oLE0AB3ViaB4pgZR9lChoIYwnbW9kZWwubGF5ZXJzLjE2LnNlbGZfYXR0bi5xX3Byb2oud2VpZ2h0lGgjaAlNgANNgAOGlIWUUpRoJ2gpaCpKAFbgD2grSgDW+A9oLEoAgBgAdWJoHimBlH2UKGghjCdtb2RlbC5sYXllcnMuMTYuc2VsZl9hdHRuLmtfcHJvai53ZWlnaHSUaCNoCUuATYADhpSFlFKUaCdoKWgqSgDW+A9oK0oAVvwPaCxKAIADAHViaB4pgZR9lChoIYwnbW9kZWwubGF5ZXJzLjE2LnNlbGZfYXR0bi52X3Byb2oud2VpZ2h0lGgjaAlLgE2AA4aUhZRSlGgnaCloKkoAVvwPaCtKANb/D2gsSgCAAwB1YmgeKYGUfZQoaCGML21vZGVsLmxheWVycy4xNy5wb3N0X2F0dGVudGlvbl9sYXllcm5vcm0ud2VpZ2h0lGgjaAlNgAOFlIWUUpRoJ2gpaCpKANb/D2grSgDd/w9oLE0AB3ViaB4pgZR9lChoIYwkbW9kZWwubGF5ZXJzLjE3Lm1scC5nYXRlX3Byb2oud2VpZ2h0lGgjaAlNABNNgAOGlIWUUpRoJ2gpaCpKAN3/D2grSgDdhBBoLEoAAIUAdWJoHimBlH2UKGghjCJtb2RlbC5sYXllcnMuMTcubWxwLnVwX3Byb2oud2VpZ2h0lGgjaAlNABNNgAOGlIWUUpRoJ2gpaCpKAN2EEGgrSgDdCRFoLEoAAIUAdWJoHimBlH2UKGghjCRtb2RlbC5sYXllcnMuMTcubWxwLmRvd25fcHJvai53ZWlnaHSUaCNoCU2AA00AE4aUhZRSlGgnaCloKkoA3QkRaCtKAN2OEWgsSgAAhQB1YmgeKYGUfZQoaCGMJ21vZGVsLmxheWVycy4xNy5zZWxmX2F0dG4ub19wcm9qLndlaWdodJRoI2gJTYADTYADhpSFlFKUaCdoKWgqSgDdjhFoK0oAXacRaCxKAIAYAHViaB4pgZR9lChoIYwlbW9kZWwubGF5ZXJzLjE3LnNlbGZfYXR0bi5xX3Byb2ouYmlhc5RoI2gJTYADhZSFlFKUaCdoKWgqSgBdpxFoK0oAZKcRaCxNAAd1YmgeKYGUfZQoaCGMJW1vZGVsLmxheWVycy4xNy5zZWxmX2F0dG4ua19wcm9qLmJpYXOUaCNoCUuAhZSFlFKUaCdoKWgqSgBkpxFoK0oAZacRaCxNAAF1YmgeKYGUfZQoaCGMJW1vZGVsLmxheWVycy4xNy5zZWxmX2F0dG4udl9wcm9qLmJpYXOUaCNoCUuAhZSFlFKUaCdoKWgqSgBlpxFoK0oAZqcRaCxNAAF1YmgeKYGUfZQoaCGMJm1vZGVsLmxheWVycy4xNy5pbnB1dF9sYXllcm5vcm0ud2VpZ2h0lGgjaAlNgAOFlIWUUpRoJ2gpaCpKAGanEWgrSgBtpxFoLE0AB3ViaB4pgZR9lChoIYwnbW9kZWwubGF5ZXJzLjE3LnNlbGZfYXR0bi5xX3Byb2oud2VpZ2h0lGgjaAlNgANNgAOGlIWUUpRoJ2gpaCpKAG2nEWgrSgDtvxFoLEoAgBgAdWJoHimBlH2UKGghjCdtb2RlbC5sYXllcnMuMTcuc2VsZl9hdHRuLmtfcHJvai53ZWlnaHSUaCNoCUuATYADhpSFlFKUaCdoKWgqSgDtvxFoK0oAbcMRaCxKAIADAHViaB4pgZR9lChoIYwnbW9kZWwubGF5ZXJzLjE3LnNlbGZfYXR0bi52X3Byb2oud2VpZ2h0lGgjaAlLgE2AA4aUhZRSlGgnaCloKkoAbcMRaCtKAO3GEWgsSgCAAwB1YmgeKYGUfZQoaCGML21vZGVsLmxheWVycy4xOC5wb3N0X2F0dGVudGlvbl9sYXllcm5vcm0ud2VpZ2h0lGgjaAlNgAOFlIWUUpRoJ2gpaCpKAO3GEWgrSgD0xhFoLE0AB3ViaB4pgZR9lChoIYwkbW9kZWwubGF5ZXJzLjE4Lm1scC5nYXRlX3Byb2oud2VpZ2h0lGgjaAlNABNNgAOGlIWUUpRoJ2gpaCpKAPTGEWgrSgD0SxJoLEoAAIUAdWJoHimBlH2UKGghjCJtb2RlbC5sYXllcnMuMTgubWxwLnVwX3Byb2oud2VpZ2h0lGgjaAlNABNNgAOGlIWUUpRoJ2gpaCpKAPRLEmgrSgD00BJoLEoAAIUAdWJoHimBlH2UKGghjCRtb2RlbC5sYXllcnMuMTgubWxwLmRvd25fcHJvai53ZWlnaHSUaCNoCU2AA00AE4aUhZRSlGgnaCloKkoA9NASaCtKAPRVE2gsSgAAhQB1YmgeKYGUfZQoaCGMJ21vZGVsLmxheWVycy4xOC5zZWxmX2F0dG4ub19wcm9qLndlaWdodJRoI2gJTYADTYADhpSFlFKUaCdoKWgqSgD0VRNoK0oAdG4TaCxKAIAYAHViaB4pgZR9lChoIYwlbW9kZWwubGF5ZXJzLjE4LnNlbGZfYXR0bi5xX3Byb2ouYmlhc5RoI2gJTYADhZSFlFKUaCdoKWgqSgB0bhNoK0oAe24TaCxNAAd1YmgeKYGUfZQoaCGMJW1vZGVsLmxheWVycy4xOC5zZWxmX2F0dG4ua19wcm9qLmJpYXOUaCNoCUuAhZSFlFKUaCdoKWgqSgB7bhNoK0oAfG4TaCxNAAF1YmgeKYGUfZQoaCGMJW1vZGVsLmxheWVycy4xOC5zZWxmX2F0dG4udl9wcm9qLmJpYXOUaCNoCUuAhZSFlFKUaCdoKWgqSgB8bhNoK0oAfW4TaCxNAAF1YmgeKYGUfZQoaCGMJm1vZGVsLmxheWVycy4xOC5pbnB1dF9sYXllcm5vcm0ud2VpZ2h0lGgjaAlNgAOFlIWUUpRoJ2gpaCpKAH1uE2grSgCEbhNoLE0AB3ViaB4pgZR9lChoIYwnbW9kZWwubGF5ZXJzLjE4LnNlbGZfYXR0bi5xX3Byb2oud2VpZ2h0lGgjaAlNgANNgAOGlIWUUpRoJ2gpaCpKAIRuE2grSgAEhxNoLEoAgBgAdWJoHimBlH2UKGghjCdtb2RlbC5sYXllcnMuMTguc2VsZl9hdHRuLmtfcHJvai53ZWlnaHSUaCNoCUuATYADhpSFlFKUaCdoKWgqSgAEhxNoK0oAhIoTaCxKAIADAHViaB4pgZR9lChoIYwnbW9kZWwubGF5ZXJzLjE4LnNlbGZfYXR0bi52X3Byb2oud2VpZ2h0lGgjaAlLgE2AA4aUhZRSlGgnaCloKkoAhIoTaCtKAASOE2gsSgCAAwB1YmgeKYGUfZQoaCGML21vZGVsLmxheWVycy4xOS5wb3N0X2F0dGVudGlvbl9sYXllcm5vcm0ud2VpZ2h0lGgjaAlNgAOFlIWUUpRoJ2gpaCpKAASOE2grSgALjhNoLE0AB3ViaB4pgZR9lChoIYwkbW9kZWwubGF5ZXJzLjE5Lm1scC5nYXRlX3Byb2oud2VpZ2h0lGgjaAlNABNNgAOGlIWUUpRoJ2gpaCpKAAuOE2grSgALExRoLEoAAIUAdWJoHimBlH2UKGghjCJtb2RlbC5sYXllcnMuMTkubWxwLnVwX3Byb2oud2VpZ2h0lGgjaAlNABNNgAOGlIWUUpRoJ2gpaCpKAAsTFGgrSgALmBRoLEoAAIUAdWJoHimBlH2UKGghjCRtb2RlbC5sYXllcnMuMTkubWxwLmRvd25fcHJvai53ZWlnaHSUaCNoCU2AA00AE4aUhZRSlGgnaCloKkoAC5gUaCtKAAsdFWgsSgAAhQB1YmgeKYGUfZQoaCGMJ21vZGVsLmxheWVycy4xOS5zZWxmX2F0dG4ub19wcm9qLndlaWdodJRoI2gJTYADTYADhpSFlFKUaCdoKWgqSgALHRVoK0oAizUVaCxKAIAYAHViaB4pgZR9lChoIYwlbW9kZWwubGF5ZXJzLjE5LnNlbGZfYXR0bi5xX3Byb2ouYmlhc5RoI2gJTYADhZSFlFKUaCdoKWgqSgCLNRVoK0oAkjUVaCxNAAd1YmgeKYGUfZQoaCGMJW1vZGVsLmxheWVycy4xOS5zZWxmX2F0dG4ua19wcm9qLmJpYXOUaCNoCUuAhZSFlFKUaCdoKWgqSgCSNRVoK0oAkzUVaCxNAAF1YmgeKYGUfZQoaCGMJW1vZGVsLmxheWVycy4xOS5zZWxmX2F0dG4udl9wcm9qLmJpYXOUaCNoCUuAhZSFlFKUaCdoKWgqSgCTNRVoK0oAlDUVaCxNAAF1YmgeKYGUfZQoaCGMJm1vZGVsLmxheWVycy4xOS5pbnB1dF9sYXllcm5vcm0ud2VpZ2h0lGgjaAlNgAOFlIWUUpRoJ2gpaCpKAJQ1FWgrSgCbNRVoLE0AB3ViaB4pgZR9lChoIYwnbW9kZWwubGF5ZXJzLjE5LnNlbGZfYXR0bi5xX3Byb2oud2VpZ2h0lGgjaAlNgANNgAOGlIWUUpRoJ2gpaCpKAJs1FWgrSgAbThVoLEoAgBgAdWJoHimBlH2UKGghjCdtb2RlbC5sYXllcnMuMTkuc2VsZl9hdHRuLmtfcHJvai53ZWlnaHSUaCNoCUuATYADhpSFlFKUaCdoKWgqSgAbThVoK0oAm1EVaCxKAIADAHViaB4pgZR9lChoIYwnbW9kZWwubGF5ZXJzLjE5LnNlbGZfYXR0bi52X3Byb2oud2VpZ2h0lGgjaAlLgE2AA4aUhZRSlGgnaCloKkoAm1EVaCtKABtVFWgsSgCAAwB1YmgeKYGUfZQoaCGMLm1vZGVsLmxheWVycy4yLnBvc3RfYXR0ZW50aW9uX2xheWVybm9ybS53ZWlnaHSUaCNoCU2AA4WUhZRSlGgnaCloKkoAG1UVaCtKACJVFWgsTQAHdWJoHimBlH2UKGghjCNtb2RlbC5sYXllcnMuMi5tbHAuZ2F0ZV9wcm9qLndlaWdodJRoI2gJTQATTYADhpSFlFKUaCdoKWgqSgAiVRVoK0oAItoVaCxKAACFAHViaB4pgZR9lChoIYwhbW9kZWwubGF5ZXJzLjIubWxwLnVwX3Byb2oud2VpZ2h0lGgjaAlNABNNgAOGlIWUUpRoJ2gpaCpKACLaFWgrSgAiXxZoLEoAAIUAdWJoHimBlH2UKGghjCNtb2RlbC5sYXllcnMuMi5tbHAuZG93bl9wcm9qLndlaWdodJRoI2gJTYADTQAThpSFlFKUaCdoKWgqSgAiXxZoK0oAIuQWaCxKAACFAHViaB4pgZR9lChoIYwmbW9kZWwubGF5ZXJzLjIuc2VsZl9hdHRuLm9fcHJvai53ZWlnaHSUaCNoCU2AA02AA4aUhZRSlGgnaCloKkoAIuQWaCtKAKL8FmgsSgCAGAB1YmgeKYGUfZQoaCGMJG1vZGVsLmxheWVycy4yLnNlbGZfYXR0bi5xX3Byb2ouYmlhc5RoI2gJTYADhZSFlFKUaCdoKWgqSgCi/BZoK0oAqfwWaCxNAAd1YmgeKYGUfZQoaCGMJG1vZGVsLmxheWVycy4yLnNlbGZfYXR0bi5rX3Byb2ouYmlhc5RoI2gJS4CFlIWUUpRoJ2gpaCpKAKn8FmgrSgCq/BZoLE0AAXViaB4pgZR9lChoIYwkbW9kZWwubGF5ZXJzLjIuc2VsZl9hdHRuLnZfcHJvai5iaWFzlGgjaAlLgIWUhZRSlGgnaCloKkoAqvwWaCtKAKv8FmgsTQABdWJoHimBlH2UKGghjCVtb2RlbC5sYXllcnMuMi5pbnB1dF9sYXllcm5vcm0ud2VpZ2h0lGgjaAlNgAOFlIWUUpRoJ2gpaCpKAKv8FmgrSgCy/BZoLE0AB3ViaB4pgZR9lChoIYwmbW9kZWwubGF5ZXJzLjIuc2VsZl9hdHRuLnFfcHJvai53ZWlnaHSUaCNoCU2AA02AA4aUhZRSlGgnaCloKkoAsvwWaCtKADIVF2gsSgCAGAB1YmgeKYGUfZQoaCGMJm1vZGVsLmxheWVycy4yLnNlbGZfYXR0bi5rX3Byb2oud2VpZ2h0lGgjaAlLgE2AA4aUhZRSlGgnaCloKkoAMhUXaCtKALIYF2gsSgCAAwB1YmgeKYGUfZQoaCGMJm1vZGVsLmxheWVycy4yLnNlbGZfYXR0bi52X3Byb2oud2VpZ2h0lGgjaAlLgE2AA4aUhZRSlGgnaCloKkoAshgXaCtKADIcF2gsSgCAAwB1YmgeKYGUfZQoaCGML21vZGVsLmxheWVycy4yMC5wb3N0X2F0dGVudGlvbl9sYXllcm5vcm0ud2VpZ2h0lGgjaAlNgAOFlIWUUpRoJ2gpaCpKADIcF2grSgA5HBdoLE0AB3ViaB4pgZR9lChoIYwkbW9kZWwubGF5ZXJzLjIwLm1scC5nYXRlX3Byb2oud2VpZ2h0lGgjaAlNABNNgAOGlIWUUpRoJ2gpaCpKADkcF2grSgA5oRdoLEoAAIUAdWJoHimBlH2UKGghjCJtb2RlbC5sYXllcnMuMjAubWxwLnVwX3Byb2oud2VpZ2h0lGgjaAlNABNNgAOGlIWUUpRoJ2gpaCpKADmhF2grSgA5JhhoLEoAAIUAdWJoHimBlH2UKGghjCRtb2RlbC5sYXllcnMuMjAubWxwLmRvd25fcHJvai53ZWlnaHSUaCNoCU2AA00AE4aUhZRSlGgnaCloKkoAOSYYaCtKADmrGGgsSgAAhQB1YmgeKYGUfZQoaCGMJ21vZGVsLmxheWVycy4yMC5zZWxmX2F0dG4ub19wcm9qLndlaWdodJRoI2gJTYADTYADhpSFlFKUaCdoKWgqSgA5qxhoK0oAucMYaCxKAIAYAHViaB4pgZR9lChoIYwlbW9kZWwubGF5ZXJzLjIwLnNlbGZfYXR0bi5xX3Byb2ouYmlhc5RoI2gJTYADhZSFlFKUaCdoKWgqSgC5wxhoK0oAwMMYaCxNAAd1YmgeKYGUfZQoaCGMJW1vZGVsLmxheWVycy4yMC5zZWxmX2F0dG4ua19wcm9qLmJpYXOUaCNoCUuAhZSFlFKUaCdoKWgqSgDAwxhoK0oAwcMYaCxNAAF1YmgeKYGUfZQoaCGMJW1vZGVsLmxheWVycy4yMC5zZWxmX2F0dG4udl9wcm9qLmJpYXOUaCNoCUuAhZSFlFKUaCdoKWgqSgDBwxhoK0oAwsMYaCxNAAF1YmgeKYGUfZQoaCGMJm1vZGVsLmxheWVycy4yMC5pbnB1dF9sYXllcm5vcm0ud2VpZ2h0lGgjaAlNgAOFlIWUUpRoJ2gpaCpKAMLDGGgrSgDJwxhoLE0AB3ViaB4pgZR9lChoIYwnbW9kZWwubGF5ZXJzLjIwLnNlbGZfYXR0bi5xX3Byb2oud2VpZ2h0lGgjaAlNgANNgAOGlIWUUpRoJ2gpaCpKAMnDGGgrSgBJ3BhoLEoAgBgAdWJoHimBlH2UKGghjCdtb2RlbC5sYXllcnMuMjAuc2VsZl9hdHRuLmtfcHJvai53ZWlnaHSUaCNoCUuATYADhpSFlFKUaCdoKWgqSgBJ3BhoK0oAyd8YaCxKAIADAHViaB4pgZR9lChoIYwnbW9kZWwubGF5ZXJzLjIwLnNlbGZfYXR0bi52X3Byb2oud2VpZ2h0lGgjaAlLgE2AA4aUhZRSlGgnaCloKkoAyd8YaCtKAEnjGGgsSgCAAwB1YmgeKYGUfZQoaCGML21vZGVsLmxheWVycy4yMS5wb3N0X2F0dGVudGlvbl9sYXllcm5vcm0ud2VpZ2h0lGgjaAlNgAOFlIWUUpRoJ2gpaCpKAEnjGGgrSgBQ4xhoLE0AB3ViaB4pgZR9lChoIYwkbW9kZWwubGF5ZXJzLjIxLm1scC5nYXRlX3Byb2oud2VpZ2h0lGgjaAlNABNNgAOGlIWUUpRoJ2gpaCpKAFDjGGgrSgBQaBloLEoAAIUAdWJoHimBlH2UKGghjCJtb2RlbC5sYXllcnMuMjEubWxwLnVwX3Byb2oud2VpZ2h0lGgjaAlNABNNgAOGlIWUUpRoJ2gpaCpKAFBoGWgrSgBQ7RloLEoAAIUAdWJoHimBlH2UKGghjCRtb2RlbC5sYXllcnMuMjEubWxwLmRvd25fcHJvai53ZWlnaHSUaCNoCU2AA00AE4aUhZRSlGgnaCloKkoAUO0ZaCtKAFByGmgsSgAAhQB1YmgeKYGUfZQoaCGMJ21vZGVsLmxheWVycy4yMS5zZWxmX2F0dG4ub19wcm9qLndlaWdodJRoI2gJTYADTYADhpSFlFKUaCdoKWgqSgBQchpoK0oA0IoaaCxKAIAYAHViaB4pgZR9lChoIYwlbW9kZWwubGF5ZXJzLjIxLnNlbGZfYXR0bi5xX3Byb2ouYmlhc5RoI2gJTYADhZSFlFKUaCdoKWgqSgDQihpoK0oA14oaaCxNAAd1YmgeKYGUfZQoaCGMJW1vZGVsLmxheWVycy4yMS5zZWxmX2F0dG4ua19wcm9qLmJpYXOUaCNoCUuAhZSFlFKUaCdoKWgqSgDXihpoK0oA2IoaaCxNAAF1YmgeKYGUfZQoaCGMJW1vZGVsLmxheWVycy4yMS5zZWxmX2F0dG4udl9wcm9qLmJpYXOUaCNoCUuAhZSFlFKUaCdoKWgqSgDYihpoK0oA2YoaaCxNAAF1YmgeKYGUfZQoaCGMJm1vZGVsLmxheWVycy4yMS5pbnB1dF9sYXllcm5vcm0ud2VpZ2h0lGgjaAlNgAOFlIWUUpRoJ2gpaCpKANmKGmgrSgDgihpoLE0AB3ViaB4pgZR9lChoIYwnbW9kZWwubGF5ZXJzLjIxLnNlbGZfYXR0bi5xX3Byb2oud2VpZ2h0lGgjaAlNgANNgAOGlIWUUpRoJ2gpaCpKAOCKGmgrSgBgoxpoLEoAgBgAdWJoHimBlH2UKGghjCdtb2RlbC5sYXllcnMuMjEuc2VsZl9hdHRuLmtfcHJvai53ZWlnaHSUaCNoCUuATYADhpSFlFKUaCdoKWgqSgBgoxpoK0oA4KYaaCxKAIADAHViaB4pgZR9lChoIYwnbW9kZWwubGF5ZXJzLjIxLnNlbGZfYXR0bi52X3Byb2oud2VpZ2h0lGgjaAlLgE2AA4aUhZRSlGgnaCloKkoA4KYaaCtKAGCqGmgsSgCAAwB1YmgeKYGUfZQoaCGML21vZGVsLmxheWVycy4yMi5wb3N0X2F0dGVudGlvbl9sYXllcm5vcm0ud2VpZ2h0lGgjaAlNgAOFlIWUUpRoJ2gpaCpKAGCqGmgrSgBnqhpoLE0AB3ViaB4pgZR9lChoIYwkbW9kZWwubGF5ZXJzLjIyLm1scC5nYXRlX3Byb2oud2VpZ2h0lGgjaAlNABNNgAOGlIWUUpRoJ2gpaCpKAGeqGmgrSgBnLxtoLEoAAIUAdWJoHimBlH2UKGghjCJtb2RlbC5sYXllcnMuMjIubWxwLnVwX3Byb2oud2VpZ2h0lGgjaAlNABNNgAOGlIWUUpRoJ2gpaCpKAGcvG2grSgBntBtoLEoAAIUAdWJoHimBlH2UKGghjCRtb2RlbC5sYXllcnMuMjIubWxwLmRvd25fcHJvai53ZWlnaHSUaCNoCU2AA00AE4aUhZRSlGgnaCloKkoAZ7QbaCtKAGc5HGgsSgAAhQB1YmgeKYGUfZQoaCGMJ21vZGVsLmxheWVycy4yMi5zZWxmX2F0dG4ub19wcm9qLndlaWdodJRoI2gJTYADTYADhpSFlFKUaCdoKWgqSgBnORxoK0oA51EcaCxKAIAYAHViaB4pgZR9lChoIYwlbW9kZWwubGF5ZXJzLjIyLnNlbGZfYXR0bi5xX3Byb2ouYmlhc5RoI2gJTYADhZSFlFKUaCdoKWgqSgDnURxoK0oA7lEcaCxNAAd1YmgeKYGUfZQoaCGMJW1vZGVsLmxheWVycy4yMi5zZWxmX2F0dG4ua19wcm9qLmJpYXOUaCNoCUuAhZSFlFKUaCdoKWgqSgDuURxoK0oA71EcaCxNAAF1YmgeKYGUfZQoaCGMJW1vZGVsLmxheWVycy4yMi5zZWxmX2F0dG4udl9wcm9qLmJpYXOUaCNoCUuAhZSFlFKUaCdoKWgqSgDvURxoK0oA8FEcaCxNAAF1YmgeKYGUfZQoaCGMJm1vZGVsLmxheWVycy4yMi5pbnB1dF9sYXllcm5vcm0ud2VpZ2h0lGgjaAlNgAOFlIWUUpRoJ2gpaCpKAPBRHGgrSgD3URxoLE0AB3ViaB4pgZR9lChoIYwnbW9kZWwubGF5ZXJzLjIyLnNlbGZfYXR0bi5xX3Byb2oud2VpZ2h0lGgjaAlNgANNgAOGlIWUUpRoJ2gpaCpKAPdRHGgrSgB3ahxoLEoAgBgAdWJoHimBlH2UKGghjCdtb2RlbC5sYXllcnMuMjIuc2VsZl9hdHRuLmtfcHJvai53ZWlnaHSUaCNoCUuATYADhpSFlFKUaCdoKWgqSgB3ahxoK0oA920caCxKAIADAHViaB4pgZR9lChoIYwnbW9kZWwubGF5ZXJzLjIyLnNlbGZfYXR0bi52X3Byb2oud2VpZ2h0lGgjaAlLgE2AA4aUhZRSlGgnaCloKkoA920caCtKAHdxHGgsSgCAAwB1YmgeKYGUfZQoaCGML21vZGVsLmxheWVycy4yMy5wb3N0X2F0dGVudGlvbl9sYXllcm5vcm0ud2VpZ2h0lGgjaAlNgAOFlIWUUpRoJ2gpaCpKAHdxHGgrSgB+cRxoLE0AB3ViaB4pgZR9lChoIYwkbW9kZWwubGF5ZXJzLjIzLm1scC5nYXRlX3Byb2oud2VpZ2h0lGgjaAlNABNNgAOGlIWUUpRoJ2gpaCpKAH5xHGgrSgB+9hxoLEoAAIUAdWJoHimBlH2UKGghjCJtb2RlbC5sYXllcnMuMjMubWxwLnVwX3Byb2oud2VpZ2h0lGgjaAlNABNNgAOGlIWUUpRoJ2gpaCpKAH72HGgrSgB+ex1oLEoAAIUAdWJoHimBlH2UKGghjCRtb2RlbC5sYXllcnMuMjMubWxwLmRvd25fcHJvai53ZWlnaHSUaCNoCU2AA00AE4aUhZRSlGgnaCloKkoAfnsdaCtKAH4AHmgsSgAAhQB1YmgeKYGUfZQoaCGMJ21vZGVsLmxheWVycy4yMy5zZWxmX2F0dG4ub19wcm9qLndlaWdodJRoI2gJTYADTYADhpSFlFKUaCdoKWgqSgB+AB5oK0oA/hgeaCxKAIAYAHViaB4pgZR9lChoIYwlbW9kZWwubGF5ZXJzLjIzLnNlbGZfYXR0bi5xX3Byb2ouYmlhc5RoI2gJTYADhZSFlFKUaCdoKWgqSgD+GB5oK0oABRkeaCxNAAd1YmgeKYGUfZQoaCGMJW1vZGVsLmxheWVycy4yMy5zZWxmX2F0dG4ua19wcm9qLmJpYXOUaCNoCUuAhZSFlFKUaCdoKWgqSgAFGR5oK0oABhkeaCxNAAF1YmgeKYGUfZQoaCGMJW1vZGVsLmxheWVycy4yMy5zZWxmX2F0dG4udl9wcm9qLmJpYXOUaCNoCUuAhZSFlFKUaCdoKWgqSgAGGR5oK0oABxkeaCxNAAF1YmgeKYGUfZQoaCGMJm1vZGVsLmxheWVycy4yMy5pbnB1dF9sYXllcm5vcm0ud2VpZ2h0lGgjaAlNgAOFlIWUUpRoJ2gpaCpKAAcZHmgrSgAOGR5oLE0AB3ViaB4pgZR9lChoIYwnbW9kZWwubGF5ZXJzLjIzLnNlbGZfYXR0bi5xX3Byb2oud2VpZ2h0lGgjaAlNgANNgAOGlIWUUpRoJ2gpaCpKAA4ZHmgrSgCOMR5oLEoAgBgAdWJoHimBlH2UKGghjCdtb2RlbC5sYXllcnMuMjMuc2VsZl9hdHRuLmtfcHJvai53ZWlnaHSUaCNoCUuATYADhpSFlFKUaCdoKWgqSgCOMR5oK0oADjUeaCxKAIADAHViaB4pgZR9lChoIYwnbW9kZWwubGF5ZXJzLjIzLnNlbGZfYXR0bi52X3Byb2oud2VpZ2h0lGgjaAlLgE2AA4aUhZRSlGgnaCloKkoADjUeaCtKAI44HmgsSgCAAwB1YmgeKYGUfZQoaCGMLm1vZGVsLmxheWVycy4zLnBvc3RfYXR0ZW50aW9uX2xheWVybm9ybS53ZWlnaHSUaCNoCU2AA4WUhZRSlGgnaCloKkoAjjgeaCtKAJU4HmgsTQAHdWJoHimBlH2UKGghjCNtb2RlbC5sYXllcnMuMy5tbHAuZ2F0ZV9wcm9qLndlaWdodJRoI2gJTQATTYADhpSFlFKUaCdoKWgqSgCVOB5oK0oAlb0eaCxKAACFAHViaB4pgZR9lChoIYwhbW9kZWwubGF5ZXJzLjMubWxwLnVwX3Byb2oud2VpZ2h0lGgjaAlNABNNgAOGlIWUUpRoJ2gpaCpKAJW9HmgrSgCVQh9oLEoAAIUAdWJoHimBlH2UKGghjCNtb2RlbC5sYXllcnMuMy5tbHAuZG93bl9wcm9qLndlaWdodJRoI2gJTYADTQAThpSFlFKUaCdoKWgqSgCVQh9oK0oAlccfaCxKAACFAHViaB4pgZR9lChoIYwmbW9kZWwubGF5ZXJzLjMuc2VsZl9hdHRuLm9fcHJvai53ZWlnaHSUaCNoCU2AA02AA4aUhZRSlGgnaCloKkoAlccfaCtKABXgH2gsSgCAGAB1YmgeKYGUfZQoaCGMJG1vZGVsLmxheWVycy4zLnNlbGZfYXR0bi5xX3Byb2ouYmlhc5RoI2gJTYADhZSFlFKUaCdoKWgqSgAV4B9oK0oAHOAfaCxNAAd1YmgeKYGUfZQoaCGMJG1vZGVsLmxheWVycy4zLnNlbGZfYXR0bi5rX3Byb2ouYmlhc5RoI2gJS4CFlIWUUpRoJ2gpaCpKABzgH2grSgAd4B9oLE0AAXViaB4pgZR9lChoIYwkbW9kZWwubGF5ZXJzLjMuc2VsZl9hdHRuLnZfcHJvai5iaWFzlGgjaAlLgIWUhZRSlGgnaCloKkoAHeAfaCtKAB7gH2gsTQABdWJoHimBlH2UKGghjCVtb2RlbC5sYXllcnMuMy5pbnB1dF9sYXllcm5vcm0ud2VpZ2h0lGgjaAlNgAOFlIWUUpRoJ2gpaCpKAB7gH2grSgAl4B9oLE0AB3ViaB4pgZR9lChoIYwmbW9kZWwubGF5ZXJzLjMuc2VsZl9hdHRuLnFfcHJvai53ZWlnaHSUaCNoCU2AA02AA4aUhZRSlGgnaCloKkoAJeAfaCtKAKX4H2gsSgCAGAB1YmgeKYGUfZQoaCGMJm1vZGVsLmxheWVycy4zLnNlbGZfYXR0bi5rX3Byb2oud2VpZ2h0lGgjaAlLgE2AA4aUhZRSlGgnaCloKkoApfgfaCtKACX8H2gsSgCAAwB1YmgeKYGUfZQoaCGMJm1vZGVsLmxheWVycy4zLnNlbGZfYXR0bi52X3Byb2oud2VpZ2h0lGgjaAlLgE2AA4aUhZRSlGgnaCloKkoAJfwfaCtKAKX/H2gsSgCAAwB1YmgeKYGUfZQoaCGMLm1vZGVsLmxheWVycy40LnBvc3RfYXR0ZW50aW9uX2xheWVybm9ybS53ZWlnaHSUaCNoCU2AA4WUhZRSlGgnaCloKkoApf8faCtKAKz/H2gsTQAHdWJldS4='], 'load_format': 'flattened_bucket', 'flush_cache': False, 'weight_version': '1'}
    send_request(url, payload)
    print("request2")

    url = "http://localhost:15000/update_weights_from_tensor"
    payload = {'serialized_named_tensors': ['gASVjxsAAAAAAAB9lCiMEGZsYXR0ZW5lZF90ZW5zb3KUjBxzZ2xhbmcuc3J0LnV0aWxzLnBhdGNoX3RvcmNolIwdX3JlYnVpbGRfY3VkYV90ZW5zb3JfbW9kaWZpZWSUk5QojAV0b3JjaJSMBlRlbnNvcpSTlGgFjARTaXpllJOUSgAD5RqFlIWUUpRLAYWUSwCMDXRvcmNoLnN0b3JhZ2WUjAxUeXBlZFN0b3JhZ2WUk5SMBXRvcmNolIwFdWludDiUk5SMJGJkMGNkYzJmLTNjMzYtZWQ0ZC1iZTQxLWYxZWFmMzM4NzU1YpRDQgJjADgHLQAAAAAWBgAAAAAAAAAAACAAAAAAAAACAAAAAAAeAAAAAP8AAAEDAAAAAAAAZQ/QwVUEAFwAAAAAAAAAAJRKAAPlGksAiUMXL3RvcmNoXzE1NThfNzYwNDgxOTE5XzGUSwBDQBYGAAAAAAAAAQAAAAAAAAD/DwAAAAAAAAAAAAAAAAAAAAAAAAAAAAAAAAAAAAAAAAAAAAAAAAAAAAAAAAAAAACUiHSUUpSMCG1ldGFkYXRhlF2UKIwkc2dsYW5nLnNydC53ZWlnaHRfc3luYy50ZW5zb3JfYnVja2V0lIwXRmxhdHRlbmVkVGVuc29yTWV0YWRhdGGUk5QpgZR9lCiMBG5hbWWUjCNtb2RlbC5sYXllcnMuNC5tbHAuZ2F0ZV9wcm9qLndlaWdodJSMBXNoYXBllGgJTQATTYADhpSFlFKUjAVkdHlwZZRoEYwIYmZsb2F0MTaUk5SMCXN0YXJ0X2lkeJRLAIwHZW5kX2lkeJRKAACFAIwFbnVtZWyUSgAAhQB1YmgeKYGUfZQoaCGMIW1vZGVsLmxheWVycy40Lm1scC51cF9wcm9qLndlaWdodJRoI2gJTQATTYADhpSFlFKUaCdoKWgqSgAAhQBoK0oAAAoBaCxKAACFAHViaB4pgZR9lChoIYwjbW9kZWwubGF5ZXJzLjQubWxwLmRvd25fcHJvai53ZWlnaHSUaCNoCU2AA00AE4aUhZRSlGgnaCloKkoAAAoBaCtKAACPAWgsSgAAhQB1YmgeKYGUfZQoaCGMJm1vZGVsLmxheWVycy40LnNlbGZfYXR0bi5vX3Byb2oud2VpZ2h0lGgjaAlNgANNgAOGlIWUUpRoJ2gpaCpKAACPAWgrSgCApwFoLEoAgBgAdWJoHimBlH2UKGghjCRtb2RlbC5sYXllcnMuNC5zZWxmX2F0dG4ucV9wcm9qLmJpYXOUaCNoCU2AA4WUhZRSlGgnaCloKkoAgKcBaCtKAIenAWgsTQAHdWJoHimBlH2UKGghjCRtb2RlbC5sYXllcnMuNC5zZWxmX2F0dG4ua19wcm9qLmJpYXOUaCNoCUuAhZSFlFKUaCdoKWgqSgCHpwFoK0oAiKcBaCxNAAF1YmgeKYGUfZQoaCGMJG1vZGVsLmxheWVycy40LnNlbGZfYXR0bi52X3Byb2ouYmlhc5RoI2gJS4CFlIWUUpRoJ2gpaCpKAIinAWgrSgCJpwFoLE0AAXViaB4pgZR9lChoIYwlbW9kZWwubGF5ZXJzLjQuaW5wdXRfbGF5ZXJub3JtLndlaWdodJRoI2gJTYADhZSFlFKUaCdoKWgqSgCJpwFoK0oAkKcBaCxNAAd1YmgeKYGUfZQoaCGMJm1vZGVsLmxheWVycy40LnNlbGZfYXR0bi5xX3Byb2oud2VpZ2h0lGgjaAlNgANNgAOGlIWUUpRoJ2gpaCpKAJCnAWgrSgAQwAFoLEoAgBgAdWJoHimBlH2UKGghjCZtb2RlbC5sYXllcnMuNC5zZWxmX2F0dG4ua19wcm9qLndlaWdodJRoI2gJS4BNgAOGlIWUUpRoJ2gpaCpKABDAAWgrSgCQwwFoLEoAgAMAdWJoHimBlH2UKGghjCZtb2RlbC5sYXllcnMuNC5zZWxmX2F0dG4udl9wcm9qLndlaWdodJRoI2gJS4BNgAOGlIWUUpRoJ2gpaCpKAJDDAWgrSgAQxwFoLEoAgAMAdWJoHimBlH2UKGghjC5tb2RlbC5sYXllcnMuNS5wb3N0X2F0dGVudGlvbl9sYXllcm5vcm0ud2VpZ2h0lGgjaAlNgAOFlIWUUpRoJ2gpaCpKABDHAWgrSgAXxwFoLE0AB3ViaB4pgZR9lChoIYwjbW9kZWwubGF5ZXJzLjUubWxwLmdhdGVfcHJvai53ZWlnaHSUaCNoCU0AE02AA4aUhZRSlGgnaCloKkoAF8cBaCtKABdMAmgsSgAAhQB1YmgeKYGUfZQoaCGMIW1vZGVsLmxheWVycy41Lm1scC51cF9wcm9qLndlaWdodJRoI2gJTQATTYADhpSFlFKUaCdoKWgqSgAXTAJoK0oAF9ECaCxKAACFAHViaB4pgZR9lChoIYwjbW9kZWwubGF5ZXJzLjUubWxwLmRvd25fcHJvai53ZWlnaHSUaCNoCU2AA00AE4aUhZRSlGgnaCloKkoAF9ECaCtKABdWA2gsSgAAhQB1YmgeKYGUfZQoaCGMJm1vZGVsLmxheWVycy41LnNlbGZfYXR0bi5vX3Byb2oud2VpZ2h0lGgjaAlNgANNgAOGlIWUUpRoJ2gpaCpKABdWA2grSgCXbgNoLEoAgBgAdWJoHimBlH2UKGghjCRtb2RlbC5sYXllcnMuNS5zZWxmX2F0dG4ucV9wcm9qLmJpYXOUaCNoCU2AA4WUhZRSlGgnaCloKkoAl24DaCtKAJ5uA2gsTQAHdWJoHimBlH2UKGghjCRtb2RlbC5sYXllcnMuNS5zZWxmX2F0dG4ua19wcm9qLmJpYXOUaCNoCUuAhZSFlFKUaCdoKWgqSgCebgNoK0oAn24DaCxNAAF1YmgeKYGUfZQoaCGMJG1vZGVsLmxheWVycy41LnNlbGZfYXR0bi52X3Byb2ouYmlhc5RoI2gJS4CFlIWUUpRoJ2gpaCpKAJ9uA2grSgCgbgNoLE0AAXViaB4pgZR9lChoIYwlbW9kZWwubGF5ZXJzLjUuaW5wdXRfbGF5ZXJub3JtLndlaWdodJRoI2gJTYADhZSFlFKUaCdoKWgqSgCgbgNoK0oAp24DaCxNAAd1YmgeKYGUfZQoaCGMJm1vZGVsLmxheWVycy41LnNlbGZfYXR0bi5xX3Byb2oud2VpZ2h0lGgjaAlNgANNgAOGlIWUUpRoJ2gpaCpKAKduA2grSgAnhwNoLEoAgBgAdWJoHimBlH2UKGghjCZtb2RlbC5sYXllcnMuNS5zZWxmX2F0dG4ua19wcm9qLndlaWdodJRoI2gJS4BNgAOGlIWUUpRoJ2gpaCpKACeHA2grSgCnigNoLEoAgAMAdWJoHimBlH2UKGghjCZtb2RlbC5sYXllcnMuNS5zZWxmX2F0dG4udl9wcm9qLndlaWdodJRoI2gJS4BNgAOGlIWUUpRoJ2gpaCpKAKeKA2grSgAnjgNoLEoAgAMAdWJoHimBlH2UKGghjC5tb2RlbC5sYXllcnMuNi5wb3N0X2F0dGVudGlvbl9sYXllcm5vcm0ud2VpZ2h0lGgjaAlNgAOFlIWUUpRoJ2gpaCpKACeOA2grSgAujgNoLE0AB3ViaB4pgZR9lChoIYwjbW9kZWwubGF5ZXJzLjYubWxwLmdhdGVfcHJvai53ZWlnaHSUaCNoCU0AE02AA4aUhZRSlGgnaCloKkoALo4DaCtKAC4TBGgsSgAAhQB1YmgeKYGUfZQoaCGMIW1vZGVsLmxheWVycy42Lm1scC51cF9wcm9qLndlaWdodJRoI2gJTQATTYADhpSFlFKUaCdoKWgqSgAuEwRoK0oALpgEaCxKAACFAHViaB4pgZR9lChoIYwjbW9kZWwubGF5ZXJzLjYubWxwLmRvd25fcHJvai53ZWlnaHSUaCNoCU2AA00AE4aUhZRSlGgnaCloKkoALpgEaCtKAC4dBWgsSgAAhQB1YmgeKYGUfZQoaCGMJm1vZGVsLmxheWVycy42LnNlbGZfYXR0bi5vX3Byb2oud2VpZ2h0lGgjaAlNgANNgAOGlIWUUpRoJ2gpaCpKAC4dBWgrSgCuNQVoLEoAgBgAdWJoHimBlH2UKGghjCRtb2RlbC5sYXllcnMuNi5zZWxmX2F0dG4ucV9wcm9qLmJpYXOUaCNoCU2AA4WUhZRSlGgnaCloKkoArjUFaCtKALU1BWgsTQAHdWJoHimBlH2UKGghjCRtb2RlbC5sYXllcnMuNi5zZWxmX2F0dG4ua19wcm9qLmJpYXOUaCNoCUuAhZSFlFKUaCdoKWgqSgC1NQVoK0oAtjUFaCxNAAF1YmgeKYGUfZQoaCGMJG1vZGVsLmxheWVycy42LnNlbGZfYXR0bi52X3Byb2ouYmlhc5RoI2gJS4CFlIWUUpRoJ2gpaCpKALY1BWgrSgC3NQVoLE0AAXViaB4pgZR9lChoIYwlbW9kZWwubGF5ZXJzLjYuaW5wdXRfbGF5ZXJub3JtLndlaWdodJRoI2gJTYADhZSFlFKUaCdoKWgqSgC3NQVoK0oAvjUFaCxNAAd1YmgeKYGUfZQoaCGMJm1vZGVsLmxheWVycy42LnNlbGZfYXR0bi5xX3Byb2oud2VpZ2h0lGgjaAlNgANNgAOGlIWUUpRoJ2gpaCpKAL41BWgrSgA+TgVoLEoAgBgAdWJoHimBlH2UKGghjCZtb2RlbC5sYXllcnMuNi5zZWxmX2F0dG4ua19wcm9qLndlaWdodJRoI2gJS4BNgAOGlIWUUpRoJ2gpaCpKAD5OBWgrSgC+UQVoLEoAgAMAdWJoHimBlH2UKGghjCZtb2RlbC5sYXllcnMuNi5zZWxmX2F0dG4udl9wcm9qLndlaWdodJRoI2gJS4BNgAOGlIWUUpRoJ2gpaCpKAL5RBWgrSgA+VQVoLEoAgAMAdWJoHimBlH2UKGghjC5tb2RlbC5sYXllcnMuNy5wb3N0X2F0dGVudGlvbl9sYXllcm5vcm0ud2VpZ2h0lGgjaAlNgAOFlIWUUpRoJ2gpaCpKAD5VBWgrSgBFVQVoLE0AB3ViaB4pgZR9lChoIYwjbW9kZWwubGF5ZXJzLjcubWxwLmdhdGVfcHJvai53ZWlnaHSUaCNoCU0AE02AA4aUhZRSlGgnaCloKkoARVUFaCtKAEXaBWgsSgAAhQB1YmgeKYGUfZQoaCGMIW1vZGVsLmxheWVycy43Lm1scC51cF9wcm9qLndlaWdodJRoI2gJTQATTYADhpSFlFKUaCdoKWgqSgBF2gVoK0oARV8GaCxKAACFAHViaB4pgZR9lChoIYwjbW9kZWwubGF5ZXJzLjcubWxwLmRvd25fcHJvai53ZWlnaHSUaCNoCU2AA00AE4aUhZRSlGgnaCloKkoARV8GaCtKAEXkBmgsSgAAhQB1YmgeKYGUfZQoaCGMJm1vZGVsLmxheWVycy43LnNlbGZfYXR0bi5vX3Byb2oud2VpZ2h0lGgjaAlNgANNgAOGlIWUUpRoJ2gpaCpKAEXkBmgrSgDF/AZoLEoAgBgAdWJoHimBlH2UKGghjCRtb2RlbC5sYXllcnMuNy5zZWxmX2F0dG4ucV9wcm9qLmJpYXOUaCNoCU2AA4WUhZRSlGgnaCloKkoAxfwGaCtKAMz8BmgsTQAHdWJoHimBlH2UKGghjCRtb2RlbC5sYXllcnMuNy5zZWxmX2F0dG4ua19wcm9qLmJpYXOUaCNoCUuAhZSFlFKUaCdoKWgqSgDM/AZoK0oAzfwGaCxNAAF1YmgeKYGUfZQoaCGMJG1vZGVsLmxheWVycy43LnNlbGZfYXR0bi52X3Byb2ouYmlhc5RoI2gJS4CFlIWUUpRoJ2gpaCpKAM38BmgrSgDO/AZoLE0AAXViaB4pgZR9lChoIYwlbW9kZWwubGF5ZXJzLjcuaW5wdXRfbGF5ZXJub3JtLndlaWdodJRoI2gJTYADhZSFlFKUaCdoKWgqSgDO/AZoK0oA1fwGaCxNAAd1YmgeKYGUfZQoaCGMJm1vZGVsLmxheWVycy43LnNlbGZfYXR0bi5xX3Byb2oud2VpZ2h0lGgjaAlNgANNgAOGlIWUUpRoJ2gpaCpKANX8BmgrSgBVFQdoLEoAgBgAdWJoHimBlH2UKGghjCZtb2RlbC5sYXllcnMuNy5zZWxmX2F0dG4ua19wcm9qLndlaWdodJRoI2gJS4BNgAOGlIWUUpRoJ2gpaCpKAFUVB2grSgDVGAdoLEoAgAMAdWJoHimBlH2UKGghjCZtb2RlbC5sYXllcnMuNy5zZWxmX2F0dG4udl9wcm9qLndlaWdodJRoI2gJS4BNgAOGlIWUUpRoJ2gpaCpKANUYB2grSgBVHAdoLEoAgAMAdWJoHimBlH2UKGghjC5tb2RlbC5sYXllcnMuOC5wb3N0X2F0dGVudGlvbl9sYXllcm5vcm0ud2VpZ2h0lGgjaAlNgAOFlIWUUpRoJ2gpaCpKAFUcB2grSgBcHAdoLE0AB3ViaB4pgZR9lChoIYwjbW9kZWwubGF5ZXJzLjgubWxwLmdhdGVfcHJvai53ZWlnaHSUaCNoCU0AE02AA4aUhZRSlGgnaCloKkoAXBwHaCtKAFyhB2gsSgAAhQB1YmgeKYGUfZQoaCGMIW1vZGVsLmxheWVycy44Lm1scC51cF9wcm9qLndlaWdodJRoI2gJTQATTYADhpSFlFKUaCdoKWgqSgBcoQdoK0oAXCYIaCxKAACFAHViaB4pgZR9lChoIYwjbW9kZWwubGF5ZXJzLjgubWxwLmRvd25fcHJvai53ZWlnaHSUaCNoCU2AA00AE4aUhZRSlGgnaCloKkoAXCYIaCtKAFyrCGgsSgAAhQB1YmgeKYGUfZQoaCGMJm1vZGVsLmxheWVycy44LnNlbGZfYXR0bi5vX3Byb2oud2VpZ2h0lGgjaAlNgANNgAOGlIWUUpRoJ2gpaCpKAFyrCGgrSgDcwwhoLEoAgBgAdWJoHimBlH2UKGghjCRtb2RlbC5sYXllcnMuOC5zZWxmX2F0dG4ucV9wcm9qLmJpYXOUaCNoCU2AA4WUhZRSlGgnaCloKkoA3MMIaCtKAOPDCGgsTQAHdWJoHimBlH2UKGghjCRtb2RlbC5sYXllcnMuOC5zZWxmX2F0dG4ua19wcm9qLmJpYXOUaCNoCUuAhZSFlFKUaCdoKWgqSgDjwwhoK0oA5MMIaCxNAAF1YmgeKYGUfZQoaCGMJG1vZGVsLmxheWVycy44LnNlbGZfYXR0bi52X3Byb2ouYmlhc5RoI2gJS4CFlIWUUpRoJ2gpaCpKAOTDCGgrSgDlwwhoLE0AAXViaB4pgZR9lChoIYwlbW9kZWwubGF5ZXJzLjguaW5wdXRfbGF5ZXJub3JtLndlaWdodJRoI2gJTYADhZSFlFKUaCdoKWgqSgDlwwhoK0oA7MMIaCxNAAd1YmgeKYGUfZQoaCGMJm1vZGVsLmxheWVycy44LnNlbGZfYXR0bi5xX3Byb2oud2VpZ2h0lGgjaAlNgANNgAOGlIWUUpRoJ2gpaCpKAOzDCGgrSgBs3AhoLEoAgBgAdWJoHimBlH2UKGghjCZtb2RlbC5sYXllcnMuOC5zZWxmX2F0dG4ua19wcm9qLndlaWdodJRoI2gJS4BNgAOGlIWUUpRoJ2gpaCpKAGzcCGgrSgDs3whoLEoAgAMAdWJoHimBlH2UKGghjCZtb2RlbC5sYXllcnMuOC5zZWxmX2F0dG4udl9wcm9qLndlaWdodJRoI2gJS4BNgAOGlIWUUpRoJ2gpaCpKAOzfCGgrSgBs4whoLEoAgAMAdWJoHimBlH2UKGghjC5tb2RlbC5sYXllcnMuOS5wb3N0X2F0dGVudGlvbl9sYXllcm5vcm0ud2VpZ2h0lGgjaAlNgAOFlIWUUpRoJ2gpaCpKAGzjCGgrSgBz4whoLE0AB3ViaB4pgZR9lChoIYwjbW9kZWwubGF5ZXJzLjkubWxwLmdhdGVfcHJvai53ZWlnaHSUaCNoCU0AE02AA4aUhZRSlGgnaCloKkoAc+MIaCtKAHNoCWgsSgAAhQB1YmgeKYGUfZQoaCGMIW1vZGVsLmxheWVycy45Lm1scC51cF9wcm9qLndlaWdodJRoI2gJTQATTYADhpSFlFKUaCdoKWgqSgBzaAloK0oAc+0JaCxKAACFAHViaB4pgZR9lChoIYwjbW9kZWwubGF5ZXJzLjkubWxwLmRvd25fcHJvai53ZWlnaHSUaCNoCU2AA00AE4aUhZRSlGgnaCloKkoAc+0JaCtKAHNyCmgsSgAAhQB1YmgeKYGUfZQoaCGMJm1vZGVsLmxheWVycy45LnNlbGZfYXR0bi5vX3Byb2oud2VpZ2h0lGgjaAlNgANNgAOGlIWUUpRoJ2gpaCpKAHNyCmgrSgDzigpoLEoAgBgAdWJoHimBlH2UKGghjCRtb2RlbC5sYXllcnMuOS5zZWxmX2F0dG4ucV9wcm9qLmJpYXOUaCNoCU2AA4WUhZRSlGgnaCloKkoA84oKaCtKAPqKCmgsTQAHdWJoHimBlH2UKGghjCRtb2RlbC5sYXllcnMuOS5zZWxmX2F0dG4ua19wcm9qLmJpYXOUaCNoCUuAhZSFlFKUaCdoKWgqSgD6igpoK0oA+4oKaCxNAAF1YmgeKYGUfZQoaCGMJG1vZGVsLmxheWVycy45LnNlbGZfYXR0bi52X3Byb2ouYmlhc5RoI2gJS4CFlIWUUpRoJ2gpaCpKAPuKCmgrSgD8igpoLE0AAXViaB4pgZR9lChoIYwlbW9kZWwubGF5ZXJzLjkuaW5wdXRfbGF5ZXJub3JtLndlaWdodJRoI2gJTYADhZSFlFKUaCdoKWgqSgD8igpoK0oAA4sKaCxNAAd1YmgeKYGUfZQoaCGMJm1vZGVsLmxheWVycy45LnNlbGZfYXR0bi5xX3Byb2oud2VpZ2h0lGgjaAlNgANNgAOGlIWUUpRoJ2gpaCpKAAOLCmgrSgCDowpoLEoAgBgAdWJoHimBlH2UKGghjCZtb2RlbC5sYXllcnMuOS5zZWxmX2F0dG4ua19wcm9qLndlaWdodJRoI2gJS4BNgAOGlIWUUpRoJ2gpaCpKAIOjCmgrSgADpwpoLEoAgAMAdWJoHimBlH2UKGghjCZtb2RlbC5sYXllcnMuOS5zZWxmX2F0dG4udl9wcm9qLndlaWdodJRoI2gJS4BNgAOGlIWUUpRoJ2gpaCpKAAOnCmgrSgCDqgpoLEoAgAMAdWJoHimBlH2UKGghjBltb2RlbC5lbWJlZF90b2tlbnMud2VpZ2h0lGgjaAlKgFECAE2AA4aUhZRSlGgnaCloKkoAg6oKaCtKAAPlGmgsSgCAOhB1YmV1Lg=='], 'load_format': 'flattened_bucket', 'flush_cache': False, 'weight_version': '1'}
    send_request(url, payload)
    print("request3")

if __name__ == "__main__":
    main()