import requests
import json
import sys

def send_request(url, payload):
    print(f"send request to {url}")
    response = requests.post(
        url,
        json=payload
    )

    print(f"Status: {response.status_code}")
    print(json.dumps(response.json(), indent=2))
    return response.json()

def main():
    print("start")

    url="http://localhost:15000/release_memory_occupation"
    payload={}
    send_request(url, payload)
    print("request0")

    url = "http://localhost:15000/resume_memory_occupation"
    payload={'tags': ['weights']}
    send_request(url, payload)
    print("request1")

    url = "http://localhost:15000/update_weights_from_tensor"
    payload = {'serialized_named_tensors': ['gASV8E8AAAAAAAB9lCiMEGZsYXR0ZW5lZF90ZW5zb3KUjBxzZ2xhbmcuc3J0LnV0aWxzLnBhdGNoX3RvcmNolIwdX3JlYnVpbGRfY3VkYV90ZW5zb3JfbW9kaWZpZWSUk5QojAV0b3JjaJSMBlRlbnNvcpSTlGgFjARTaXpllJOUSgCs/x+FlIWUUpRLAYWUSwCMDXRvcmNoLnN0b3JhZ2WUjAxUeXBlZFN0b3JhZ2WUk5SMBXRvcmNolIwFdWludDiUk5SMJGJkMGNkYzJmLTNjMzYtZWQ0ZC1iZTQxLWYxZWFmMzM4NzU1YpRDQgJjEKxCSwAAAAAuWAAAAAAAAAAAACAAAAAAAAACAAAAAAAeAAAAAP8AAAEDAAAAAAAArwzQwVUEAFwAAAAAAAAAAJRKAKz/H0sAiUMZL3RvcmNoXzIyNTc0XzQwODkwMTE4MzhfMJRLAENALlgAAAAAAAABAAAAAAAAAP8PAAAAAAAAAAAAAAAAAAAAAAAAAAAAAAAAAAAAAAAAAAAAAAAAAAAAAAAAAAAAAJSIdJRSlIwIbWV0YWRhdGGUXZQojCRzZ2xhbmcuc3J0LndlaWdodF9zeW5jLnRlbnNvcl9idWNrZXSUjBdGbGF0dGVuZWRUZW5zb3JNZXRhZGF0YZSTlCmBlH2UKIwEbmFtZZSMEW1vZGVsLm5vcm0ud2VpZ2h0lIwFc2hhcGWUaAlNgAOFlIWUUpSMBWR0eXBllGgRjAhiZmxvYXQxNpSTlIwJc3RhcnRfaWR4lEsAjAdlbmRfaWR4lE0AB4wFbnVtZWyUTQAHdWJoHimBlH2UKGghjC5tb2RlbC5sYXllcnMuMC5wb3N0X2F0dGVudGlvbl9sYXllcm5vcm0ud2VpZ2h0lGgjaAlNgAOFlIWUUpRoJ2gpaCpNAAdoK00ADmgsTQAHdWJoHimBlH2UKGghjCNtb2RlbC5sYXllcnMuMC5tbHAuZ2F0ZV9wcm9qLndlaWdodJRoI2gJTQATTYADhpSFlFKUaCdoKWgqTQAOaCtKAA6FAGgsSgAAhQB1YmgeKYGUfZQoaCGMIW1vZGVsLmxheWVycy4wLm1scC51cF9wcm9qLndlaWdodJRoI2gJTQATTYADhpSFlFKUaCdoKWgqSgAOhQBoK0oADgoBaCxKAACFAHViaB4pgZR9lChoIYwjbW9kZWwubGF5ZXJzLjAubWxwLmRvd25fcHJvai53ZWlnaHSUaCNoCU2AA00AE4aUhZRSlGgnaCloKkoADgoBaCtKAA6PAWgsSgAAhQB1YmgeKYGUfZQoaCGMJm1vZGVsLmxheWVycy4wLnNlbGZfYXR0bi5vX3Byb2oud2VpZ2h0lGgjaAlNgANNgAOGlIWUUpRoJ2gpaCpKAA6PAWgrSgCOpwFoLEoAgBgAdWJoHimBlH2UKGghjCRtb2RlbC5sYXllcnMuMC5zZWxmX2F0dG4ucV9wcm9qLmJpYXOUaCNoCU2AA4WUhZRSlGgnaCloKkoAjqcBaCtKAJWnAWgsTQAHdWJoHimBlH2UKGghjCRtb2RlbC5sYXllcnMuMC5zZWxmX2F0dG4ua19wcm9qLmJpYXOUaCNoCUuAhZSFlFKUaCdoKWgqSgCVpwFoK0oAlqcBaCxNAAF1YmgeKYGUfZQoaCGMJG1vZGVsLmxheWVycy4wLnNlbGZfYXR0bi52X3Byb2ouYmlhc5RoI2gJS4CFlIWUUpRoJ2gpaCpKAJanAWgrSgCXpwFoLE0AAXViaB4pgZR9lChoIYwlbW9kZWwubGF5ZXJzLjAuaW5wdXRfbGF5ZXJub3JtLndlaWdodJRoI2gJTYADhZSFlFKUaCdoKWgqSgCXpwFoK0oAnqcBaCxNAAd1YmgeKYGUfZQoaCGMJm1vZGVsLmxheWVycy4wLnNlbGZfYXR0bi5xX3Byb2oud2VpZ2h0lGgjaAlNgANNgAOGlIWUUpRoJ2gpaCpKAJ6nAWgrSgAewAFoLEoAgBgAdWJoHimBlH2UKGghjCZtb2RlbC5sYXllcnMuMC5zZWxmX2F0dG4ua19wcm9qLndlaWdodJRoI2gJS4BNgAOGlIWUUpRoJ2gpaCpKAB7AAWgrSgCewwFoLEoAgAMAdWJoHimBlH2UKGghjCZtb2RlbC5sYXllcnMuMC5zZWxmX2F0dG4udl9wcm9qLndlaWdodJRoI2gJS4BNgAOGlIWUUpRoJ2gpaCpKAJ7DAWgrSgAexwFoLEoAgAMAdWJoHimBlH2UKGghjC5tb2RlbC5sYXllcnMuMS5wb3N0X2F0dGVudGlvbl9sYXllcm5vcm0ud2VpZ2h0lGgjaAlNgAOFlIWUUpRoJ2gpaCpKAB7HAWgrSgAlxwFoLE0AB3ViaB4pgZR9lChoIYwjbW9kZWwubGF5ZXJzLjEubWxwLmdhdGVfcHJvai53ZWlnaHSUaCNoCU0AE02AA4aUhZRSlGgnaCloKkoAJccBaCtKACVMAmgsSgAAhQB1YmgeKYGUfZQoaCGMIW1vZGVsLmxheWVycy4xLm1scC51cF9wcm9qLndlaWdodJRoI2gJTQATTYADhpSFlFKUaCdoKWgqSgAlTAJoK0oAJdECaCxKAACFAHViaB4pgZR9lChoIYwjbW9kZWwubGF5ZXJzLjEubWxwLmRvd25fcHJvai53ZWlnaHSUaCNoCU2AA00AE4aUhZRSlGgnaCloKkoAJdECaCtKACVWA2gsSgAAhQB1YmgeKYGUfZQoaCGMJm1vZGVsLmxheWVycy4xLnNlbGZfYXR0bi5vX3Byb2oud2VpZ2h0lGgjaAlNgANNgAOGlIWUUpRoJ2gpaCpKACVWA2grSgClbgNoLEoAgBgAdWJoHimBlH2UKGghjCRtb2RlbC5sYXllcnMuMS5zZWxmX2F0dG4ucV9wcm9qLmJpYXOUaCNoCU2AA4WUhZRSlGgnaCloKkoApW4DaCtKAKxuA2gsTQAHdWJoHimBlH2UKGghjCRtb2RlbC5sYXllcnMuMS5zZWxmX2F0dG4ua19wcm9qLmJpYXOUaCNoCUuAhZSFlFKUaCdoKWgqSgCsbgNoK0oArW4DaCxNAAF1YmgeKYGUfZQoaCGMJG1vZGVsLmxheWVycy4xLnNlbGZfYXR0bi52X3Byb2ouYmlhc5RoI2gJS4CFlIWUUpRoJ2gpaCpKAK1uA2grSgCubgNoLE0AAXViaB4pgZR9lChoIYwlbW9kZWwubGF5ZXJzLjEuaW5wdXRfbGF5ZXJub3JtLndlaWdodJRoI2gJTYADhZSFlFKUaCdoKWgqSgCubgNoK0oAtW4DaCxNAAd1YmgeKYGUfZQoaCGMJm1vZGVsLmxheWVycy4xLnNlbGZfYXR0bi5xX3Byb2oud2VpZ2h0lGgjaAlNgANNgAOGlIWUUpRoJ2gpaCpKALVuA2grSgA1hwNoLEoAgBgAdWJoHimBlH2UKGghjCZtb2RlbC5sYXllcnMuMS5zZWxmX2F0dG4ua19wcm9qLndlaWdodJRoI2gJS4BNgAOGlIWUUpRoJ2gpaCpKADWHA2grSgC1igNoLEoAgAMAdWJoHimBlH2UKGghjCZtb2RlbC5sYXllcnMuMS5zZWxmX2F0dG4udl9wcm9qLndlaWdodJRoI2gJS4BNgAOGlIWUUpRoJ2gpaCpKALWKA2grSgA1jgNoLEoAgAMAdWJoHimBlH2UKGghjC9tb2RlbC5sYXllcnMuMTAucG9zdF9hdHRlbnRpb25fbGF5ZXJub3JtLndlaWdodJRoI2gJTYADhZSFlFKUaCdoKWgqSgA1jgNoK0oAPI4DaCxNAAd1YmgeKYGUfZQoaCGMJG1vZGVsLmxheWVycy4xMC5tbHAuZ2F0ZV9wcm9qLndlaWdodJRoI2gJTQATTYADhpSFlFKUaCdoKWgqSgA8jgNoK0oAPBMEaCxKAACFAHViaB4pgZR9lChoIYwibW9kZWwubGF5ZXJzLjEwLm1scC51cF9wcm9qLndlaWdodJRoI2gJTQATTYADhpSFlFKUaCdoKWgqSgA8EwRoK0oAPJgEaCxKAACFAHViaB4pgZR9lChoIYwkbW9kZWwubGF5ZXJzLjEwLm1scC5kb3duX3Byb2oud2VpZ2h0lGgjaAlNgANNABOGlIWUUpRoJ2gpaCpKADyYBGgrSgA8HQVoLEoAAIUAdWJoHimBlH2UKGghjCdtb2RlbC5sYXllcnMuMTAuc2VsZl9hdHRuLm9fcHJvai53ZWlnaHSUaCNoCU2AA02AA4aUhZRSlGgnaCloKkoAPB0FaCtKALw1BWgsSgCAGAB1YmgeKYGUfZQoaCGMJW1vZGVsLmxheWVycy4xMC5zZWxmX2F0dG4ucV9wcm9qLmJpYXOUaCNoCU2AA4WUhZRSlGgnaCloKkoAvDUFaCtKAMM1BWgsTQAHdWJoHimBlH2UKGghjCVtb2RlbC5sYXllcnMuMTAuc2VsZl9hdHRuLmtfcHJvai5iaWFzlGgjaAlLgIWUhZRSlGgnaCloKkoAwzUFaCtKAMQ1BWgsTQABdWJoHimBlH2UKGghjCVtb2RlbC5sYXllcnMuMTAuc2VsZl9hdHRuLnZfcHJvai5iaWFzlGgjaAlLgIWUhZRSlGgnaCloKkoAxDUFaCtKAMU1BWgsTQABdWJoHimBlH2UKGghjCZtb2RlbC5sYXllcnMuMTAuaW5wdXRfbGF5ZXJub3JtLndlaWdodJRoI2gJTYADhZSFlFKUaCdoKWgqSgDFNQVoK0oAzDUFaCxNAAd1YmgeKYGUfZQoaCGMJ21vZGVsLmxheWVycy4xMC5zZWxmX2F0dG4ucV9wcm9qLndlaWdodJRoI2gJTYADTYADhpSFlFKUaCdoKWgqSgDMNQVoK0oATE4FaCxKAIAYAHViaB4pgZR9lChoIYwnbW9kZWwubGF5ZXJzLjEwLnNlbGZfYXR0bi5rX3Byb2oud2VpZ2h0lGgjaAlLgE2AA4aUhZRSlGgnaCloKkoATE4FaCtKAMxRBWgsSgCAAwB1YmgeKYGUfZQoaCGMJ21vZGVsLmxheWVycy4xMC5zZWxmX2F0dG4udl9wcm9qLndlaWdodJRoI2gJS4BNgAOGlIWUUpRoJ2gpaCpKAMxRBWgrSgBMVQVoLEoAgAMAdWJoHimBlH2UKGghjC9tb2RlbC5sYXllcnMuMTEucG9zdF9hdHRlbnRpb25fbGF5ZXJub3JtLndlaWdodJRoI2gJTYADhZSFlFKUaCdoKWgqSgBMVQVoK0oAU1UFaCxNAAd1YmgeKYGUfZQoaCGMJG1vZGVsLmxheWVycy4xMS5tbHAuZ2F0ZV9wcm9qLndlaWdodJRoI2gJTQATTYADhpSFlFKUaCdoKWgqSgBTVQVoK0oAU9oFaCxKAACFAHViaB4pgZR9lChoIYwibW9kZWwubGF5ZXJzLjExLm1scC51cF9wcm9qLndlaWdodJRoI2gJTQATTYADhpSFlFKUaCdoKWgqSgBT2gVoK0oAU18GaCxKAACFAHViaB4pgZR9lChoIYwkbW9kZWwubGF5ZXJzLjExLm1scC5kb3duX3Byb2oud2VpZ2h0lGgjaAlNgANNABOGlIWUUpRoJ2gpaCpKAFNfBmgrSgBT5AZoLEoAAIUAdWJoHimBlH2UKGghjCdtb2RlbC5sYXllcnMuMTEuc2VsZl9hdHRuLm9fcHJvai53ZWlnaHSUaCNoCU2AA02AA4aUhZRSlGgnaCloKkoAU+QGaCtKANP8BmgsSgCAGAB1YmgeKYGUfZQoaCGMJW1vZGVsLmxheWVycy4xMS5zZWxmX2F0dG4ucV9wcm9qLmJpYXOUaCNoCU2AA4WUhZRSlGgnaCloKkoA0/wGaCtKANr8BmgsTQAHdWJoHimBlH2UKGghjCVtb2RlbC5sYXllcnMuMTEuc2VsZl9hdHRuLmtfcHJvai5iaWFzlGgjaAlLgIWUhZRSlGgnaCloKkoA2vwGaCtKANv8BmgsTQABdWJoHimBlH2UKGghjCVtb2RlbC5sYXllcnMuMTEuc2VsZl9hdHRuLnZfcHJvai5iaWFzlGgjaAlLgIWUhZRSlGgnaCloKkoA2/wGaCtKANz8BmgsTQABdWJoHimBlH2UKGghjCZtb2RlbC5sYXllcnMuMTEuaW5wdXRfbGF5ZXJub3JtLndlaWdodJRoI2gJTYADhZSFlFKUaCdoKWgqSgDc/AZoK0oA4/wGaCxNAAd1YmgeKYGUfZQoaCGMJ21vZGVsLmxheWVycy4xMS5zZWxmX2F0dG4ucV9wcm9qLndlaWdodJRoI2gJTYADTYADhpSFlFKUaCdoKWgqSgDj/AZoK0oAYxUHaCxKAIAYAHViaB4pgZR9lChoIYwnbW9kZWwubGF5ZXJzLjExLnNlbGZfYXR0bi5rX3Byb2oud2VpZ2h0lGgjaAlLgE2AA4aUhZRSlGgnaCloKkoAYxUHaCtKAOMYB2gsSgCAAwB1YmgeKYGUfZQoaCGMJ21vZGVsLmxheWVycy4xMS5zZWxmX2F0dG4udl9wcm9qLndlaWdodJRoI2gJS4BNgAOGlIWUUpRoJ2gpaCpKAOMYB2grSgBjHAdoLEoAgAMAdWJoHimBlH2UKGghjC9tb2RlbC5sYXllcnMuMTIucG9zdF9hdHRlbnRpb25fbGF5ZXJub3JtLndlaWdodJRoI2gJTYADhZSFlFKUaCdoKWgqSgBjHAdoK0oAahwHaCxNAAd1YmgeKYGUfZQoaCGMJG1vZGVsLmxheWVycy4xMi5tbHAuZ2F0ZV9wcm9qLndlaWdodJRoI2gJTQATTYADhpSFlFKUaCdoKWgqSgBqHAdoK0oAaqEHaCxKAACFAHViaB4pgZR9lChoIYwibW9kZWwubGF5ZXJzLjEyLm1scC51cF9wcm9qLndlaWdodJRoI2gJTQATTYADhpSFlFKUaCdoKWgqSgBqoQdoK0oAaiYIaCxKAACFAHViaB4pgZR9lChoIYwkbW9kZWwubGF5ZXJzLjEyLm1scC5kb3duX3Byb2oud2VpZ2h0lGgjaAlNgANNABOGlIWUUpRoJ2gpaCpKAGomCGgrSgBqqwhoLEoAAIUAdWJoHimBlH2UKGghjCdtb2RlbC5sYXllcnMuMTIuc2VsZl9hdHRuLm9fcHJvai53ZWlnaHSUaCNoCU2AA02AA4aUhZRSlGgnaCloKkoAaqsIaCtKAOrDCGgsSgCAGAB1YmgeKYGUfZQoaCGMJW1vZGVsLmxheWVycy4xMi5zZWxmX2F0dG4ucV9wcm9qLmJpYXOUaCNoCU2AA4WUhZRSlGgnaCloKkoA6sMIaCtKAPHDCGgsTQAHdWJoHimBlH2UKGghjCVtb2RlbC5sYXllcnMuMTIuc2VsZl9hdHRuLmtfcHJvai5iaWFzlGgjaAlLgIWUhZRSlGgnaCloKkoA8cMIaCtKAPLDCGgsTQABdWJoHimBlH2UKGghjCVtb2RlbC5sYXllcnMuMTIuc2VsZl9hdHRuLnZfcHJvai5iaWFzlGgjaAlLgIWUhZRSlGgnaCloKkoA8sMIaCtKAPPDCGgsTQABdWJoHimBlH2UKGghjCZtb2RlbC5sYXllcnMuMTIuaW5wdXRfbGF5ZXJub3JtLndlaWdodJRoI2gJTYADhZSFlFKUaCdoKWgqSgDzwwhoK0oA+sMIaCxNAAd1YmgeKYGUfZQoaCGMJ21vZGVsLmxheWVycy4xMi5zZWxmX2F0dG4ucV9wcm9qLndlaWdodJRoI2gJTYADTYADhpSFlFKUaCdoKWgqSgD6wwhoK0oAetwIaCxKAIAYAHViaB4pgZR9lChoIYwnbW9kZWwubGF5ZXJzLjEyLnNlbGZfYXR0bi5rX3Byb2oud2VpZ2h0lGgjaAlLgE2AA4aUhZRSlGgnaCloKkoAetwIaCtKAPrfCGgsSgCAAwB1YmgeKYGUfZQoaCGMJ21vZGVsLmxheWVycy4xMi5zZWxmX2F0dG4udl9wcm9qLndlaWdodJRoI2gJS4BNgAOGlIWUUpRoJ2gpaCpKAPrfCGgrSgB64whoLEoAgAMAdWJoHimBlH2UKGghjC9tb2RlbC5sYXllcnMuMTMucG9zdF9hdHRlbnRpb25fbGF5ZXJub3JtLndlaWdodJRoI2gJTYADhZSFlFKUaCdoKWgqSgB64whoK0oAgeMIaCxNAAd1YmgeKYGUfZQoaCGMJG1vZGVsLmxheWVycy4xMy5tbHAuZ2F0ZV9wcm9qLndlaWdodJRoI2gJTQATTYADhpSFlFKUaCdoKWgqSgCB4whoK0oAgWgJaCxKAACFAHViaB4pgZR9lChoIYwibW9kZWwubGF5ZXJzLjEzLm1scC51cF9wcm9qLndlaWdodJRoI2gJTQATTYADhpSFlFKUaCdoKWgqSgCBaAloK0oAge0JaCxKAACFAHViaB4pgZR9lChoIYwkbW9kZWwubGF5ZXJzLjEzLm1scC5kb3duX3Byb2oud2VpZ2h0lGgjaAlNgANNABOGlIWUUpRoJ2gpaCpKAIHtCWgrSgCBcgpoLEoAAIUAdWJoHimBlH2UKGghjCdtb2RlbC5sYXllcnMuMTMuc2VsZl9hdHRuLm9fcHJvai53ZWlnaHSUaCNoCU2AA02AA4aUhZRSlGgnaCloKkoAgXIKaCtKAAGLCmgsSgCAGAB1YmgeKYGUfZQoaCGMJW1vZGVsLmxheWVycy4xMy5zZWxmX2F0dG4ucV9wcm9qLmJpYXOUaCNoCU2AA4WUhZRSlGgnaCloKkoAAYsKaCtKAAiLCmgsTQAHdWJoHimBlH2UKGghjCVtb2RlbC5sYXllcnMuMTMuc2VsZl9hdHRuLmtfcHJvai5iaWFzlGgjaAlLgIWUhZRSlGgnaCloKkoACIsKaCtKAAmLCmgsTQABdWJoHimBlH2UKGghjCVtb2RlbC5sYXllcnMuMTMuc2VsZl9hdHRuLnZfcHJvai5iaWFzlGgjaAlLgIWUhZRSlGgnaCloKkoACYsKaCtKAAqLCmgsTQABdWJoHimBlH2UKGghjCZtb2RlbC5sYXllcnMuMTMuaW5wdXRfbGF5ZXJub3JtLndlaWdodJRoI2gJTYADhZSFlFKUaCdoKWgqSgAKiwpoK0oAEYsKaCxNAAd1YmgeKYGUfZQoaCGMJ21vZGVsLmxheWVycy4xMy5zZWxmX2F0dG4ucV9wcm9qLndlaWdodJRoI2gJTYADTYADhpSFlFKUaCdoKWgqSgARiwpoK0oAkaMKaCxKAIAYAHViaB4pgZR9lChoIYwnbW9kZWwubGF5ZXJzLjEzLnNlbGZfYXR0bi5rX3Byb2oud2VpZ2h0lGgjaAlLgE2AA4aUhZRSlGgnaCloKkoAkaMKaCtKABGnCmgsSgCAAwB1YmgeKYGUfZQoaCGMJ21vZGVsLmxheWVycy4xMy5zZWxmX2F0dG4udl9wcm9qLndlaWdodJRoI2gJS4BNgAOGlIWUUpRoJ2gpaCpKABGnCmgrSgCRqgpoLEoAgAMAdWJoHimBlH2UKGghjC9tb2RlbC5sYXllcnMuMTQucG9zdF9hdHRlbnRpb25fbGF5ZXJub3JtLndlaWdodJRoI2gJTYADhZSFlFKUaCdoKWgqSgCRqgpoK0oAmKoKaCxNAAd1YmgeKYGUfZQoaCGMJG1vZGVsLmxheWVycy4xNC5tbHAuZ2F0ZV9wcm9qLndlaWdodJRoI2gJTQATTYADhpSFlFKUaCdoKWgqSgCYqgpoK0oAmC8LaCxKAACFAHViaB4pgZR9lChoIYwibW9kZWwubGF5ZXJzLjE0Lm1scC51cF9wcm9qLndlaWdodJRoI2gJTQATTYADhpSFlFKUaCdoKWgqSgCYLwtoK0oAmLQLaCxKAACFAHViaB4pgZR9lChoIYwkbW9kZWwubGF5ZXJzLjE0Lm1scC5kb3duX3Byb2oud2VpZ2h0lGgjaAlNgANNABOGlIWUUpRoJ2gpaCpKAJi0C2grSgCYOQxoLEoAAIUAdWJoHimBlH2UKGghjCdtb2RlbC5sYXllcnMuMTQuc2VsZl9hdHRuLm9fcHJvai53ZWlnaHSUaCNoCU2AA02AA4aUhZRSlGgnaCloKkoAmDkMaCtKABhSDGgsSgCAGAB1YmgeKYGUfZQoaCGMJW1vZGVsLmxheWVycy4xNC5zZWxmX2F0dG4ucV9wcm9qLmJpYXOUaCNoCU2AA4WUhZRSlGgnaCloKkoAGFIMaCtKAB9SDGgsTQAHdWJoHimBlH2UKGghjCVtb2RlbC5sYXllcnMuMTQuc2VsZl9hdHRuLmtfcHJvai5iaWFzlGgjaAlLgIWUhZRSlGgnaCloKkoAH1IMaCtKACBSDGgsTQABdWJoHimBlH2UKGghjCVtb2RlbC5sYXllcnMuMTQuc2VsZl9hdHRuLnZfcHJvai5iaWFzlGgjaAlLgIWUhZRSlGgnaCloKkoAIFIMaCtKACFSDGgsTQABdWJoHimBlH2UKGghjCZtb2RlbC5sYXllcnMuMTQuaW5wdXRfbGF5ZXJub3JtLndlaWdodJRoI2gJTYADhZSFlFKUaCdoKWgqSgAhUgxoK0oAKFIMaCxNAAd1YmgeKYGUfZQoaCGMJ21vZGVsLmxheWVycy4xNC5zZWxmX2F0dG4ucV9wcm9qLndlaWdodJRoI2gJTYADTYADhpSFlFKUaCdoKWgqSgAoUgxoK0oAqGoMaCxKAIAYAHViaB4pgZR9lChoIYwnbW9kZWwubGF5ZXJzLjE0LnNlbGZfYXR0bi5rX3Byb2oud2VpZ2h0lGgjaAlLgE2AA4aUhZRSlGgnaCloKkoAqGoMaCtKAChuDGgsSgCAAwB1YmgeKYGUfZQoaCGMJ21vZGVsLmxheWVycy4xNC5zZWxmX2F0dG4udl9wcm9qLndlaWdodJRoI2gJS4BNgAOGlIWUUpRoJ2gpaCpKAChuDGgrSgCocQxoLEoAgAMAdWJoHimBlH2UKGghjC9tb2RlbC5sYXllcnMuMTUucG9zdF9hdHRlbnRpb25fbGF5ZXJub3JtLndlaWdodJRoI2gJTYADhZSFlFKUaCdoKWgqSgCocQxoK0oAr3EMaCxNAAd1YmgeKYGUfZQoaCGMJG1vZGVsLmxheWVycy4xNS5tbHAuZ2F0ZV9wcm9qLndlaWdodJRoI2gJTQATTYADhpSFlFKUaCdoKWgqSgCvcQxoK0oAr/YMaCxKAACFAHViaB4pgZR9lChoIYwibW9kZWwubGF5ZXJzLjE1Lm1scC51cF9wcm9qLndlaWdodJRoI2gJTQATTYADhpSFlFKUaCdoKWgqSgCv9gxoK0oAr3sNaCxKAACFAHViaB4pgZR9lChoIYwkbW9kZWwubGF5ZXJzLjE1Lm1scC5kb3duX3Byb2oud2VpZ2h0lGgjaAlNgANNABOGlIWUUpRoJ2gpaCpKAK97DWgrSgCvAA5oLEoAAIUAdWJoHimBlH2UKGghjCdtb2RlbC5sYXllcnMuMTUuc2VsZl9hdHRuLm9fcHJvai53ZWlnaHSUaCNoCU2AA02AA4aUhZRSlGgnaCloKkoArwAOaCtKAC8ZDmgsSgCAGAB1YmgeKYGUfZQoaCGMJW1vZGVsLmxheWVycy4xNS5zZWxmX2F0dG4ucV9wcm9qLmJpYXOUaCNoCU2AA4WUhZRSlGgnaCloKkoALxkOaCtKADYZDmgsTQAHdWJoHimBlH2UKGghjCVtb2RlbC5sYXllcnMuMTUuc2VsZl9hdHRuLmtfcHJvai5iaWFzlGgjaAlLgIWUhZRSlGgnaCloKkoANhkOaCtKADcZDmgsTQABdWJoHimBlH2UKGghjCVtb2RlbC5sYXllcnMuMTUuc2VsZl9hdHRuLnZfcHJvai5iaWFzlGgjaAlLgIWUhZRSlGgnaCloKkoANxkOaCtKADgZDmgsTQABdWJoHimBlH2UKGghjCZtb2RlbC5sYXllcnMuMTUuaW5wdXRfbGF5ZXJub3JtLndlaWdodJRoI2gJTYADhZSFlFKUaCdoKWgqSgA4GQ5oK0oAPxkOaCxNAAd1YmgeKYGUfZQoaCGMJ21vZGVsLmxheWVycy4xNS5zZWxmX2F0dG4ucV9wcm9qLndlaWdodJRoI2gJTYADTYADhpSFlFKUaCdoKWgqSgA/GQ5oK0oAvzEOaCxKAIAYAHViaB4pgZR9lChoIYwnbW9kZWwubGF5ZXJzLjE1LnNlbGZfYXR0bi5rX3Byb2oud2VpZ2h0lGgjaAlLgE2AA4aUhZRSlGgnaCloKkoAvzEOaCtKAD81DmgsSgCAAwB1YmgeKYGUfZQoaCGMJ21vZGVsLmxheWVycy4xNS5zZWxmX2F0dG4udl9wcm9qLndlaWdodJRoI2gJS4BNgAOGlIWUUpRoJ2gpaCpKAD81DmgrSgC/OA5oLEoAgAMAdWJoHimBlH2UKGghjC9tb2RlbC5sYXllcnMuMTYucG9zdF9hdHRlbnRpb25fbGF5ZXJub3JtLndlaWdodJRoI2gJTYADhZSFlFKUaCdoKWgqSgC/OA5oK0oAxjgOaCxNAAd1YmgeKYGUfZQoaCGMJG1vZGVsLmxheWVycy4xNi5tbHAuZ2F0ZV9wcm9qLndlaWdodJRoI2gJTQATTYADhpSFlFKUaCdoKWgqSgDGOA5oK0oAxr0OaCxKAACFAHViaB4pgZR9lChoIYwibW9kZWwubGF5ZXJzLjE2Lm1scC51cF9wcm9qLndlaWdodJRoI2gJTQATTYADhpSFlFKUaCdoKWgqSgDGvQ5oK0oAxkIPaCxKAACFAHViaB4pgZR9lChoIYwkbW9kZWwubGF5ZXJzLjE2Lm1scC5kb3duX3Byb2oud2VpZ2h0lGgjaAlNgANNABOGlIWUUpRoJ2gpaCpKAMZCD2grSgDGxw9oLEoAAIUAdWJoHimBlH2UKGghjCdtb2RlbC5sYXllcnMuMTYuc2VsZl9hdHRuLm9fcHJvai53ZWlnaHSUaCNoCU2AA02AA4aUhZRSlGgnaCloKkoAxscPaCtKAEbgD2gsSgCAGAB1YmgeKYGUfZQoaCGMJW1vZGVsLmxheWVycy4xNi5zZWxmX2F0dG4ucV9wcm9qLmJpYXOUaCNoCU2AA4WUhZRSlGgnaCloKkoARuAPaCtKAE3gD2gsTQAHdWJoHimBlH2UKGghjCVtb2RlbC5sYXllcnMuMTYuc2VsZl9hdHRuLmtfcHJvai5iaWFzlGgjaAlLgIWUhZRSlGgnaCloKkoATeAPaCtKAE7gD2gsTQABdWJoHimBlH2UKGghjCVtb2RlbC5sYXllcnMuMTYuc2VsZl9hdHRuLnZfcHJvai5iaWFzlGgjaAlLgIWUhZRSlGgnaCloKkoATuAPaCtKAE/gD2gsTQABdWJoHimBlH2UKGghjCZtb2RlbC5sYXllcnMuMTYuaW5wdXRfbGF5ZXJub3JtLndlaWdodJRoI2gJTYADhZSFlFKUaCdoKWgqSgBP4A9oK0oAVuAPaCxNAAd1YmgeKYGUfZQoaCGMJ21vZGVsLmxheWVycy4xNi5zZWxmX2F0dG4ucV9wcm9qLndlaWdodJRoI2gJTYADTYADhpSFlFKUaCdoKWgqSgBW4A9oK0oA1vgPaCxKAIAYAHViaB4pgZR9lChoIYwnbW9kZWwubGF5ZXJzLjE2LnNlbGZfYXR0bi5rX3Byb2oud2VpZ2h0lGgjaAlLgE2AA4aUhZRSlGgnaCloKkoA1vgPaCtKAFb8D2gsSgCAAwB1YmgeKYGUfZQoaCGMJ21vZGVsLmxheWVycy4xNi5zZWxmX2F0dG4udl9wcm9qLndlaWdodJRoI2gJS4BNgAOGlIWUUpRoJ2gpaCpKAFb8D2grSgDW/w9oLEoAgAMAdWJoHimBlH2UKGghjC9tb2RlbC5sYXllcnMuMTcucG9zdF9hdHRlbnRpb25fbGF5ZXJub3JtLndlaWdodJRoI2gJTYADhZSFlFKUaCdoKWgqSgDW/w9oK0oA3f8PaCxNAAd1YmgeKYGUfZQoaCGMJG1vZGVsLmxheWVycy4xNy5tbHAuZ2F0ZV9wcm9qLndlaWdodJRoI2gJTQATTYADhpSFlFKUaCdoKWgqSgDd/w9oK0oA3YQQaCxKAACFAHViaB4pgZR9lChoIYwibW9kZWwubGF5ZXJzLjE3Lm1scC51cF9wcm9qLndlaWdodJRoI2gJTQATTYADhpSFlFKUaCdoKWgqSgDdhBBoK0oA3QkRaCxKAACFAHViaB4pgZR9lChoIYwkbW9kZWwubGF5ZXJzLjE3Lm1scC5kb3duX3Byb2oud2VpZ2h0lGgjaAlNgANNABOGlIWUUpRoJ2gpaCpKAN0JEWgrSgDdjhFoLEoAAIUAdWJoHimBlH2UKGghjCdtb2RlbC5sYXllcnMuMTcuc2VsZl9hdHRuLm9fcHJvai53ZWlnaHSUaCNoCU2AA02AA4aUhZRSlGgnaCloKkoA3Y4RaCtKAF2nEWgsSgCAGAB1YmgeKYGUfZQoaCGMJW1vZGVsLmxheWVycy4xNy5zZWxmX2F0dG4ucV9wcm9qLmJpYXOUaCNoCU2AA4WUhZRSlGgnaCloKkoAXacRaCtKAGSnEWgsTQAHdWJoHimBlH2UKGghjCVtb2RlbC5sYXllcnMuMTcuc2VsZl9hdHRuLmtfcHJvai5iaWFzlGgjaAlLgIWUhZRSlGgnaCloKkoAZKcRaCtKAGWnEWgsTQABdWJoHimBlH2UKGghjCVtb2RlbC5sYXllcnMuMTcuc2VsZl9hdHRuLnZfcHJvai5iaWFzlGgjaAlLgIWUhZRSlGgnaCloKkoAZacRaCtKAGanEWgsTQABdWJoHimBlH2UKGghjCZtb2RlbC5sYXllcnMuMTcuaW5wdXRfbGF5ZXJub3JtLndlaWdodJRoI2gJTYADhZSFlFKUaCdoKWgqSgBmpxFoK0oAbacRaCxNAAd1YmgeKYGUfZQoaCGMJ21vZGVsLmxheWVycy4xNy5zZWxmX2F0dG4ucV9wcm9qLndlaWdodJRoI2gJTYADTYADhpSFlFKUaCdoKWgqSgBtpxFoK0oA7b8RaCxKAIAYAHViaB4pgZR9lChoIYwnbW9kZWwubGF5ZXJzLjE3LnNlbGZfYXR0bi5rX3Byb2oud2VpZ2h0lGgjaAlLgE2AA4aUhZRSlGgnaCloKkoA7b8RaCtKAG3DEWgsSgCAAwB1YmgeKYGUfZQoaCGMJ21vZGVsLmxheWVycy4xNy5zZWxmX2F0dG4udl9wcm9qLndlaWdodJRoI2gJS4BNgAOGlIWUUpRoJ2gpaCpKAG3DEWgrSgDtxhFoLEoAgAMAdWJoHimBlH2UKGghjC9tb2RlbC5sYXllcnMuMTgucG9zdF9hdHRlbnRpb25fbGF5ZXJub3JtLndlaWdodJRoI2gJTYADhZSFlFKUaCdoKWgqSgDtxhFoK0oA9MYRaCxNAAd1YmgeKYGUfZQoaCGMJG1vZGVsLmxheWVycy4xOC5tbHAuZ2F0ZV9wcm9qLndlaWdodJRoI2gJTQATTYADhpSFlFKUaCdoKWgqSgD0xhFoK0oA9EsSaCxKAACFAHViaB4pgZR9lChoIYwibW9kZWwubGF5ZXJzLjE4Lm1scC51cF9wcm9qLndlaWdodJRoI2gJTQATTYADhpSFlFKUaCdoKWgqSgD0SxJoK0oA9NASaCxKAACFAHViaB4pgZR9lChoIYwkbW9kZWwubGF5ZXJzLjE4Lm1scC5kb3duX3Byb2oud2VpZ2h0lGgjaAlNgANNABOGlIWUUpRoJ2gpaCpKAPTQEmgrSgD0VRNoLEoAAIUAdWJoHimBlH2UKGghjCdtb2RlbC5sYXllcnMuMTguc2VsZl9hdHRuLm9fcHJvai53ZWlnaHSUaCNoCU2AA02AA4aUhZRSlGgnaCloKkoA9FUTaCtKAHRuE2gsSgCAGAB1YmgeKYGUfZQoaCGMJW1vZGVsLmxheWVycy4xOC5zZWxmX2F0dG4ucV9wcm9qLmJpYXOUaCNoCU2AA4WUhZRSlGgnaCloKkoAdG4TaCtKAHtuE2gsTQAHdWJoHimBlH2UKGghjCVtb2RlbC5sYXllcnMuMTguc2VsZl9hdHRuLmtfcHJvai5iaWFzlGgjaAlLgIWUhZRSlGgnaCloKkoAe24TaCtKAHxuE2gsTQABdWJoHimBlH2UKGghjCVtb2RlbC5sYXllcnMuMTguc2VsZl9hdHRuLnZfcHJvai5iaWFzlGgjaAlLgIWUhZRSlGgnaCloKkoAfG4TaCtKAH1uE2gsTQABdWJoHimBlH2UKGghjCZtb2RlbC5sYXllcnMuMTguaW5wdXRfbGF5ZXJub3JtLndlaWdodJRoI2gJTYADhZSFlFKUaCdoKWgqSgB9bhNoK0oAhG4TaCxNAAd1YmgeKYGUfZQoaCGMJ21vZGVsLmxheWVycy4xOC5zZWxmX2F0dG4ucV9wcm9qLndlaWdodJRoI2gJTYADTYADhpSFlFKUaCdoKWgqSgCEbhNoK0oABIcTaCxKAIAYAHViaB4pgZR9lChoIYwnbW9kZWwubGF5ZXJzLjE4LnNlbGZfYXR0bi5rX3Byb2oud2VpZ2h0lGgjaAlLgE2AA4aUhZRSlGgnaCloKkoABIcTaCtKAISKE2gsSgCAAwB1YmgeKYGUfZQoaCGMJ21vZGVsLmxheWVycy4xOC5zZWxmX2F0dG4udl9wcm9qLndlaWdodJRoI2gJS4BNgAOGlIWUUpRoJ2gpaCpKAISKE2grSgAEjhNoLEoAgAMAdWJoHimBlH2UKGghjC9tb2RlbC5sYXllcnMuMTkucG9zdF9hdHRlbnRpb25fbGF5ZXJub3JtLndlaWdodJRoI2gJTYADhZSFlFKUaCdoKWgqSgAEjhNoK0oAC44TaCxNAAd1YmgeKYGUfZQoaCGMJG1vZGVsLmxheWVycy4xOS5tbHAuZ2F0ZV9wcm9qLndlaWdodJRoI2gJTQATTYADhpSFlFKUaCdoKWgqSgALjhNoK0oACxMUaCxKAACFAHViaB4pgZR9lChoIYwibW9kZWwubGF5ZXJzLjE5Lm1scC51cF9wcm9qLndlaWdodJRoI2gJTQATTYADhpSFlFKUaCdoKWgqSgALExRoK0oAC5gUaCxKAACFAHViaB4pgZR9lChoIYwkbW9kZWwubGF5ZXJzLjE5Lm1scC5kb3duX3Byb2oud2VpZ2h0lGgjaAlNgANNABOGlIWUUpRoJ2gpaCpKAAuYFGgrSgALHRVoLEoAAIUAdWJoHimBlH2UKGghjCdtb2RlbC5sYXllcnMuMTkuc2VsZl9hdHRuLm9fcHJvai53ZWlnaHSUaCNoCU2AA02AA4aUhZRSlGgnaCloKkoACx0VaCtKAIs1FWgsSgCAGAB1YmgeKYGUfZQoaCGMJW1vZGVsLmxheWVycy4xOS5zZWxmX2F0dG4ucV9wcm9qLmJpYXOUaCNoCU2AA4WUhZRSlGgnaCloKkoAizUVaCtKAJI1FWgsTQAHdWJoHimBlH2UKGghjCVtb2RlbC5sYXllcnMuMTkuc2VsZl9hdHRuLmtfcHJvai5iaWFzlGgjaAlLgIWUhZRSlGgnaCloKkoAkjUVaCtKAJM1FWgsTQABdWJoHimBlH2UKGghjCVtb2RlbC5sYXllcnMuMTkuc2VsZl9hdHRuLnZfcHJvai5iaWFzlGgjaAlLgIWUhZRSlGgnaCloKkoAkzUVaCtKAJQ1FWgsTQABdWJoHimBlH2UKGghjCZtb2RlbC5sYXllcnMuMTkuaW5wdXRfbGF5ZXJub3JtLndlaWdodJRoI2gJTYADhZSFlFKUaCdoKWgqSgCUNRVoK0oAmzUVaCxNAAd1YmgeKYGUfZQoaCGMJ21vZGVsLmxheWVycy4xOS5zZWxmX2F0dG4ucV9wcm9qLndlaWdodJRoI2gJTYADTYADhpSFlFKUaCdoKWgqSgCbNRVoK0oAG04VaCxKAIAYAHViaB4pgZR9lChoIYwnbW9kZWwubGF5ZXJzLjE5LnNlbGZfYXR0bi5rX3Byb2oud2VpZ2h0lGgjaAlLgE2AA4aUhZRSlGgnaCloKkoAG04VaCtKAJtRFWgsSgCAAwB1YmgeKYGUfZQoaCGMJ21vZGVsLmxheWVycy4xOS5zZWxmX2F0dG4udl9wcm9qLndlaWdodJRoI2gJS4BNgAOGlIWUUpRoJ2gpaCpKAJtRFWgrSgAbVRVoLEoAgAMAdWJoHimBlH2UKGghjC5tb2RlbC5sYXllcnMuMi5wb3N0X2F0dGVudGlvbl9sYXllcm5vcm0ud2VpZ2h0lGgjaAlNgAOFlIWUUpRoJ2gpaCpKABtVFWgrSgAiVRVoLE0AB3ViaB4pgZR9lChoIYwjbW9kZWwubGF5ZXJzLjIubWxwLmdhdGVfcHJvai53ZWlnaHSUaCNoCU0AE02AA4aUhZRSlGgnaCloKkoAIlUVaCtKACLaFWgsSgAAhQB1YmgeKYGUfZQoaCGMIW1vZGVsLmxheWVycy4yLm1scC51cF9wcm9qLndlaWdodJRoI2gJTQATTYADhpSFlFKUaCdoKWgqSgAi2hVoK0oAIl8WaCxKAACFAHViaB4pgZR9lChoIYwjbW9kZWwubGF5ZXJzLjIubWxwLmRvd25fcHJvai53ZWlnaHSUaCNoCU2AA00AE4aUhZRSlGgnaCloKkoAIl8WaCtKACLkFmgsSgAAhQB1YmgeKYGUfZQoaCGMJm1vZGVsLmxheWVycy4yLnNlbGZfYXR0bi5vX3Byb2oud2VpZ2h0lGgjaAlNgANNgAOGlIWUUpRoJ2gpaCpKACLkFmgrSgCi/BZoLEoAgBgAdWJoHimBlH2UKGghjCRtb2RlbC5sYXllcnMuMi5zZWxmX2F0dG4ucV9wcm9qLmJpYXOUaCNoCU2AA4WUhZRSlGgnaCloKkoAovwWaCtKAKn8FmgsTQAHdWJoHimBlH2UKGghjCRtb2RlbC5sYXllcnMuMi5zZWxmX2F0dG4ua19wcm9qLmJpYXOUaCNoCUuAhZSFlFKUaCdoKWgqSgCp/BZoK0oAqvwWaCxNAAF1YmgeKYGUfZQoaCGMJG1vZGVsLmxheWVycy4yLnNlbGZfYXR0bi52X3Byb2ouYmlhc5RoI2gJS4CFlIWUUpRoJ2gpaCpKAKr8FmgrSgCr/BZoLE0AAXViaB4pgZR9lChoIYwlbW9kZWwubGF5ZXJzLjIuaW5wdXRfbGF5ZXJub3JtLndlaWdodJRoI2gJTYADhZSFlFKUaCdoKWgqSgCr/BZoK0oAsvwWaCxNAAd1YmgeKYGUfZQoaCGMJm1vZGVsLmxheWVycy4yLnNlbGZfYXR0bi5xX3Byb2oud2VpZ2h0lGgjaAlNgANNgAOGlIWUUpRoJ2gpaCpKALL8FmgrSgAyFRdoLEoAgBgAdWJoHimBlH2UKGghjCZtb2RlbC5sYXllcnMuMi5zZWxmX2F0dG4ua19wcm9qLndlaWdodJRoI2gJS4BNgAOGlIWUUpRoJ2gpaCpKADIVF2grSgCyGBdoLEoAgAMAdWJoHimBlH2UKGghjCZtb2RlbC5sYXllcnMuMi5zZWxmX2F0dG4udl9wcm9qLndlaWdodJRoI2gJS4BNgAOGlIWUUpRoJ2gpaCpKALIYF2grSgAyHBdoLEoAgAMAdWJoHimBlH2UKGghjC9tb2RlbC5sYXllcnMuMjAucG9zdF9hdHRlbnRpb25fbGF5ZXJub3JtLndlaWdodJRoI2gJTYADhZSFlFKUaCdoKWgqSgAyHBdoK0oAORwXaCxNAAd1YmgeKYGUfZQoaCGMJG1vZGVsLmxheWVycy4yMC5tbHAuZ2F0ZV9wcm9qLndlaWdodJRoI2gJTQATTYADhpSFlFKUaCdoKWgqSgA5HBdoK0oAOaEXaCxKAACFAHViaB4pgZR9lChoIYwibW9kZWwubGF5ZXJzLjIwLm1scC51cF9wcm9qLndlaWdodJRoI2gJTQATTYADhpSFlFKUaCdoKWgqSgA5oRdoK0oAOSYYaCxKAACFAHViaB4pgZR9lChoIYwkbW9kZWwubGF5ZXJzLjIwLm1scC5kb3duX3Byb2oud2VpZ2h0lGgjaAlNgANNABOGlIWUUpRoJ2gpaCpKADkmGGgrSgA5qxhoLEoAAIUAdWJoHimBlH2UKGghjCdtb2RlbC5sYXllcnMuMjAuc2VsZl9hdHRuLm9fcHJvai53ZWlnaHSUaCNoCU2AA02AA4aUhZRSlGgnaCloKkoAOasYaCtKALnDGGgsSgCAGAB1YmgeKYGUfZQoaCGMJW1vZGVsLmxheWVycy4yMC5zZWxmX2F0dG4ucV9wcm9qLmJpYXOUaCNoCU2AA4WUhZRSlGgnaCloKkoAucMYaCtKAMDDGGgsTQAHdWJoHimBlH2UKGghjCVtb2RlbC5sYXllcnMuMjAuc2VsZl9hdHRuLmtfcHJvai5iaWFzlGgjaAlLgIWUhZRSlGgnaCloKkoAwMMYaCtKAMHDGGgsTQABdWJoHimBlH2UKGghjCVtb2RlbC5sYXllcnMuMjAuc2VsZl9hdHRuLnZfcHJvai5iaWFzlGgjaAlLgIWUhZRSlGgnaCloKkoAwcMYaCtKAMLDGGgsTQABdWJoHimBlH2UKGghjCZtb2RlbC5sYXllcnMuMjAuaW5wdXRfbGF5ZXJub3JtLndlaWdodJRoI2gJTYADhZSFlFKUaCdoKWgqSgDCwxhoK0oAycMYaCxNAAd1YmgeKYGUfZQoaCGMJ21vZGVsLmxheWVycy4yMC5zZWxmX2F0dG4ucV9wcm9qLndlaWdodJRoI2gJTYADTYADhpSFlFKUaCdoKWgqSgDJwxhoK0oASdwYaCxKAIAYAHViaB4pgZR9lChoIYwnbW9kZWwubGF5ZXJzLjIwLnNlbGZfYXR0bi5rX3Byb2oud2VpZ2h0lGgjaAlLgE2AA4aUhZRSlGgnaCloKkoASdwYaCtKAMnfGGgsSgCAAwB1YmgeKYGUfZQoaCGMJ21vZGVsLmxheWVycy4yMC5zZWxmX2F0dG4udl9wcm9qLndlaWdodJRoI2gJS4BNgAOGlIWUUpRoJ2gpaCpKAMnfGGgrSgBJ4xhoLEoAgAMAdWJoHimBlH2UKGghjC9tb2RlbC5sYXllcnMuMjEucG9zdF9hdHRlbnRpb25fbGF5ZXJub3JtLndlaWdodJRoI2gJTYADhZSFlFKUaCdoKWgqSgBJ4xhoK0oAUOMYaCxNAAd1YmgeKYGUfZQoaCGMJG1vZGVsLmxheWVycy4yMS5tbHAuZ2F0ZV9wcm9qLndlaWdodJRoI2gJTQATTYADhpSFlFKUaCdoKWgqSgBQ4xhoK0oAUGgZaCxKAACFAHViaB4pgZR9lChoIYwibW9kZWwubGF5ZXJzLjIxLm1scC51cF9wcm9qLndlaWdodJRoI2gJTQATTYADhpSFlFKUaCdoKWgqSgBQaBloK0oAUO0ZaCxKAACFAHViaB4pgZR9lChoIYwkbW9kZWwubGF5ZXJzLjIxLm1scC5kb3duX3Byb2oud2VpZ2h0lGgjaAlNgANNABOGlIWUUpRoJ2gpaCpKAFDtGWgrSgBQchpoLEoAAIUAdWJoHimBlH2UKGghjCdtb2RlbC5sYXllcnMuMjEuc2VsZl9hdHRuLm9fcHJvai53ZWlnaHSUaCNoCU2AA02AA4aUhZRSlGgnaCloKkoAUHIaaCtKANCKGmgsSgCAGAB1YmgeKYGUfZQoaCGMJW1vZGVsLmxheWVycy4yMS5zZWxmX2F0dG4ucV9wcm9qLmJpYXOUaCNoCU2AA4WUhZRSlGgnaCloKkoA0IoaaCtKANeKGmgsTQAHdWJoHimBlH2UKGghjCVtb2RlbC5sYXllcnMuMjEuc2VsZl9hdHRuLmtfcHJvai5iaWFzlGgjaAlLgIWUhZRSlGgnaCloKkoA14oaaCtKANiKGmgsTQABdWJoHimBlH2UKGghjCVtb2RlbC5sYXllcnMuMjEuc2VsZl9hdHRuLnZfcHJvai5iaWFzlGgjaAlLgIWUhZRSlGgnaCloKkoA2IoaaCtKANmKGmgsTQABdWJoHimBlH2UKGghjCZtb2RlbC5sYXllcnMuMjEuaW5wdXRfbGF5ZXJub3JtLndlaWdodJRoI2gJTYADhZSFlFKUaCdoKWgqSgDZihpoK0oA4IoaaCxNAAd1YmgeKYGUfZQoaCGMJ21vZGVsLmxheWVycy4yMS5zZWxmX2F0dG4ucV9wcm9qLndlaWdodJRoI2gJTYADTYADhpSFlFKUaCdoKWgqSgDgihpoK0oAYKMaaCxKAIAYAHViaB4pgZR9lChoIYwnbW9kZWwubGF5ZXJzLjIxLnNlbGZfYXR0bi5rX3Byb2oud2VpZ2h0lGgjaAlLgE2AA4aUhZRSlGgnaCloKkoAYKMaaCtKAOCmGmgsSgCAAwB1YmgeKYGUfZQoaCGMJ21vZGVsLmxheWVycy4yMS5zZWxmX2F0dG4udl9wcm9qLndlaWdodJRoI2gJS4BNgAOGlIWUUpRoJ2gpaCpKAOCmGmgrSgBgqhpoLEoAgAMAdWJoHimBlH2UKGghjC9tb2RlbC5sYXllcnMuMjIucG9zdF9hdHRlbnRpb25fbGF5ZXJub3JtLndlaWdodJRoI2gJTYADhZSFlFKUaCdoKWgqSgBgqhpoK0oAZ6oaaCxNAAd1YmgeKYGUfZQoaCGMJG1vZGVsLmxheWVycy4yMi5tbHAuZ2F0ZV9wcm9qLndlaWdodJRoI2gJTQATTYADhpSFlFKUaCdoKWgqSgBnqhpoK0oAZy8baCxKAACFAHViaB4pgZR9lChoIYwibW9kZWwubGF5ZXJzLjIyLm1scC51cF9wcm9qLndlaWdodJRoI2gJTQATTYADhpSFlFKUaCdoKWgqSgBnLxtoK0oAZ7QbaCxKAACFAHViaB4pgZR9lChoIYwkbW9kZWwubGF5ZXJzLjIyLm1scC5kb3duX3Byb2oud2VpZ2h0lGgjaAlNgANNABOGlIWUUpRoJ2gpaCpKAGe0G2grSgBnORxoLEoAAIUAdWJoHimBlH2UKGghjCdtb2RlbC5sYXllcnMuMjIuc2VsZl9hdHRuLm9fcHJvai53ZWlnaHSUaCNoCU2AA02AA4aUhZRSlGgnaCloKkoAZzkcaCtKAOdRHGgsSgCAGAB1YmgeKYGUfZQoaCGMJW1vZGVsLmxheWVycy4yMi5zZWxmX2F0dG4ucV9wcm9qLmJpYXOUaCNoCU2AA4WUhZRSlGgnaCloKkoA51EcaCtKAO5RHGgsTQAHdWJoHimBlH2UKGghjCVtb2RlbC5sYXllcnMuMjIuc2VsZl9hdHRuLmtfcHJvai5iaWFzlGgjaAlLgIWUhZRSlGgnaCloKkoA7lEcaCtKAO9RHGgsTQABdWJoHimBlH2UKGghjCVtb2RlbC5sYXllcnMuMjIuc2VsZl9hdHRuLnZfcHJvai5iaWFzlGgjaAlLgIWUhZRSlGgnaCloKkoA71EcaCtKAPBRHGgsTQABdWJoHimBlH2UKGghjCZtb2RlbC5sYXllcnMuMjIuaW5wdXRfbGF5ZXJub3JtLndlaWdodJRoI2gJTYADhZSFlFKUaCdoKWgqSgDwURxoK0oA91EcaCxNAAd1YmgeKYGUfZQoaCGMJ21vZGVsLmxheWVycy4yMi5zZWxmX2F0dG4ucV9wcm9qLndlaWdodJRoI2gJTYADTYADhpSFlFKUaCdoKWgqSgD3URxoK0oAd2ocaCxKAIAYAHViaB4pgZR9lChoIYwnbW9kZWwubGF5ZXJzLjIyLnNlbGZfYXR0bi5rX3Byb2oud2VpZ2h0lGgjaAlLgE2AA4aUhZRSlGgnaCloKkoAd2ocaCtKAPdtHGgsSgCAAwB1YmgeKYGUfZQoaCGMJ21vZGVsLmxheWVycy4yMi5zZWxmX2F0dG4udl9wcm9qLndlaWdodJRoI2gJS4BNgAOGlIWUUpRoJ2gpaCpKAPdtHGgrSgB3cRxoLEoAgAMAdWJoHimBlH2UKGghjC9tb2RlbC5sYXllcnMuMjMucG9zdF9hdHRlbnRpb25fbGF5ZXJub3JtLndlaWdodJRoI2gJTYADhZSFlFKUaCdoKWgqSgB3cRxoK0oAfnEcaCxNAAd1YmgeKYGUfZQoaCGMJG1vZGVsLmxheWVycy4yMy5tbHAuZ2F0ZV9wcm9qLndlaWdodJRoI2gJTQATTYADhpSFlFKUaCdoKWgqSgB+cRxoK0oAfvYcaCxKAACFAHViaB4pgZR9lChoIYwibW9kZWwubGF5ZXJzLjIzLm1scC51cF9wcm9qLndlaWdodJRoI2gJTQATTYADhpSFlFKUaCdoKWgqSgB+9hxoK0oAfnsdaCxKAACFAHViaB4pgZR9lChoIYwkbW9kZWwubGF5ZXJzLjIzLm1scC5kb3duX3Byb2oud2VpZ2h0lGgjaAlNgANNABOGlIWUUpRoJ2gpaCpKAH57HWgrSgB+AB5oLEoAAIUAdWJoHimBlH2UKGghjCdtb2RlbC5sYXllcnMuMjMuc2VsZl9hdHRuLm9fcHJvai53ZWlnaHSUaCNoCU2AA02AA4aUhZRSlGgnaCloKkoAfgAeaCtKAP4YHmgsSgCAGAB1YmgeKYGUfZQoaCGMJW1vZGVsLmxheWVycy4yMy5zZWxmX2F0dG4ucV9wcm9qLmJpYXOUaCNoCU2AA4WUhZRSlGgnaCloKkoA/hgeaCtKAAUZHmgsTQAHdWJoHimBlH2UKGghjCVtb2RlbC5sYXllcnMuMjMuc2VsZl9hdHRuLmtfcHJvai5iaWFzlGgjaAlLgIWUhZRSlGgnaCloKkoABRkeaCtKAAYZHmgsTQABdWJoHimBlH2UKGghjCVtb2RlbC5sYXllcnMuMjMuc2VsZl9hdHRuLnZfcHJvai5iaWFzlGgjaAlLgIWUhZRSlGgnaCloKkoABhkeaCtKAAcZHmgsTQABdWJoHimBlH2UKGghjCZtb2RlbC5sYXllcnMuMjMuaW5wdXRfbGF5ZXJub3JtLndlaWdodJRoI2gJTYADhZSFlFKUaCdoKWgqSgAHGR5oK0oADhkeaCxNAAd1YmgeKYGUfZQoaCGMJ21vZGVsLmxheWVycy4yMy5zZWxmX2F0dG4ucV9wcm9qLndlaWdodJRoI2gJTYADTYADhpSFlFKUaCdoKWgqSgAOGR5oK0oAjjEeaCxKAIAYAHViaB4pgZR9lChoIYwnbW9kZWwubGF5ZXJzLjIzLnNlbGZfYXR0bi5rX3Byb2oud2VpZ2h0lGgjaAlLgE2AA4aUhZRSlGgnaCloKkoAjjEeaCtKAA41HmgsSgCAAwB1YmgeKYGUfZQoaCGMJ21vZGVsLmxheWVycy4yMy5zZWxmX2F0dG4udl9wcm9qLndlaWdodJRoI2gJS4BNgAOGlIWUUpRoJ2gpaCpKAA41HmgrSgCOOB5oLEoAgAMAdWJoHimBlH2UKGghjC5tb2RlbC5sYXllcnMuMy5wb3N0X2F0dGVudGlvbl9sYXllcm5vcm0ud2VpZ2h0lGgjaAlNgAOFlIWUUpRoJ2gpaCpKAI44HmgrSgCVOB5oLE0AB3ViaB4pgZR9lChoIYwjbW9kZWwubGF5ZXJzLjMubWxwLmdhdGVfcHJvai53ZWlnaHSUaCNoCU0AE02AA4aUhZRSlGgnaCloKkoAlTgeaCtKAJW9HmgsSgAAhQB1YmgeKYGUfZQoaCGMIW1vZGVsLmxheWVycy4zLm1scC51cF9wcm9qLndlaWdodJRoI2gJTQATTYADhpSFlFKUaCdoKWgqSgCVvR5oK0oAlUIfaCxKAACFAHViaB4pgZR9lChoIYwjbW9kZWwubGF5ZXJzLjMubWxwLmRvd25fcHJvai53ZWlnaHSUaCNoCU2AA00AE4aUhZRSlGgnaCloKkoAlUIfaCtKAJXHH2gsSgAAhQB1YmgeKYGUfZQoaCGMJm1vZGVsLmxheWVycy4zLnNlbGZfYXR0bi5vX3Byb2oud2VpZ2h0lGgjaAlNgANNgAOGlIWUUpRoJ2gpaCpKAJXHH2grSgAV4B9oLEoAgBgAdWJoHimBlH2UKGghjCRtb2RlbC5sYXllcnMuMy5zZWxmX2F0dG4ucV9wcm9qLmJpYXOUaCNoCU2AA4WUhZRSlGgnaCloKkoAFeAfaCtKABzgH2gsTQAHdWJoHimBlH2UKGghjCRtb2RlbC5sYXllcnMuMy5zZWxmX2F0dG4ua19wcm9qLmJpYXOUaCNoCUuAhZSFlFKUaCdoKWgqSgAc4B9oK0oAHeAfaCxNAAF1YmgeKYGUfZQoaCGMJG1vZGVsLmxheWVycy4zLnNlbGZfYXR0bi52X3Byb2ouYmlhc5RoI2gJS4CFlIWUUpRoJ2gpaCpKAB3gH2grSgAe4B9oLE0AAXViaB4pgZR9lChoIYwlbW9kZWwubGF5ZXJzLjMuaW5wdXRfbGF5ZXJub3JtLndlaWdodJRoI2gJTYADhZSFlFKUaCdoKWgqSgAe4B9oK0oAJeAfaCxNAAd1YmgeKYGUfZQoaCGMJm1vZGVsLmxheWVycy4zLnNlbGZfYXR0bi5xX3Byb2oud2VpZ2h0lGgjaAlNgANNgAOGlIWUUpRoJ2gpaCpKACXgH2grSgCl+B9oLEoAgBgAdWJoHimBlH2UKGghjCZtb2RlbC5sYXllcnMuMy5zZWxmX2F0dG4ua19wcm9qLndlaWdodJRoI2gJS4BNgAOGlIWUUpRoJ2gpaCpKAKX4H2grSgAl/B9oLEoAgAMAdWJoHimBlH2UKGghjCZtb2RlbC5sYXllcnMuMy5zZWxmX2F0dG4udl9wcm9qLndlaWdodJRoI2gJS4BNgAOGlIWUUpRoJ2gpaCpKACX8H2grSgCl/x9oLEoAgAMAdWJoHimBlH2UKGghjC5tb2RlbC5sYXllcnMuNC5wb3N0X2F0dGVudGlvbl9sYXllcm5vcm0ud2VpZ2h0lGgjaAlNgAOFlIWUUpRoJ2gpaCpKAKX/H2grSgCs/x9oLE0AB3ViZXUu'], 'load_format': 'flattened_bucket', 'flush_cache': False, 'weight_version': '1'}
    send_request(url, payload)
    print("request2")

    url = "http://localhost:15000/update_weights_from_tensor"
    payload={'serialized_named_tensors': ['gASVkRsAAAAAAAB9lCiMEGZsYXR0ZW5lZF90ZW5zb3KUjBxzZ2xhbmcuc3J0LnV0aWxzLnBhdGNoX3RvcmNolIwdX3JlYnVpbGRfY3VkYV90ZW5zb3JfbW9kaWZpZWSUk5QojAV0b3JjaJSMBlRlbnNvcpSTlGgFjARTaXpllJOUSgAD5RqFlIWUUpRLAYWUSwCMDXRvcmNoLnN0b3JhZ2WUjAxUeXBlZFN0b3JhZ2WUk5SMBXRvcmNolIwFdWludDiUk5SMJGJkMGNkYzJmLTNjMzYtZWQ0ZC1iZTQxLWYxZWFmMzM4NzU1YpRDQgJjEKxCSwAAAAAuWAAAAAAAAAAAACAAAAAAAAACAAAAAAAeAAAAAP8AAAEDAAAAAAAArwzQwVUEAFwAAAAAAAAAAJRKAAPlGksAiUMZL3RvcmNoXzIyNTc0XzI3ODA2ODg1MTVfMZRLAENALlgAAAAAAAABAAAAAAAAAP8PAAAAAAAAAAAAAAAAAAAAAAAAAAAAAAAAAAAAAAAAAAAAAAAAAAAAAAAAAAAAAJSIdJRSlIwIbWV0YWRhdGGUXZQojCRzZ2xhbmcuc3J0LndlaWdodF9zeW5jLnRlbnNvcl9idWNrZXSUjBdGbGF0dGVuZWRUZW5zb3JNZXRhZGF0YZSTlCmBlH2UKIwEbmFtZZSMI21vZGVsLmxheWVycy40Lm1scC5nYXRlX3Byb2oud2VpZ2h0lIwFc2hhcGWUaAlNABNNgAOGlIWUUpSMBWR0eXBllGgRjAhiZmxvYXQxNpSTlIwJc3RhcnRfaWR4lEsAjAdlbmRfaWR4lEoAAIUAjAVudW1lbJRKAACFAHViaB4pgZR9lChoIYwhbW9kZWwubGF5ZXJzLjQubWxwLnVwX3Byb2oud2VpZ2h0lGgjaAlNABNNgAOGlIWUUpRoJ2gpaCpKAACFAGgrSgAACgFoLEoAAIUAdWJoHimBlH2UKGghjCNtb2RlbC5sYXllcnMuNC5tbHAuZG93bl9wcm9qLndlaWdodJRoI2gJTYADTQAThpSFlFKUaCdoKWgqSgAACgFoK0oAAI8BaCxKAACFAHViaB4pgZR9lChoIYwmbW9kZWwubGF5ZXJzLjQuc2VsZl9hdHRuLm9fcHJvai53ZWlnaHSUaCNoCU2AA02AA4aUhZRSlGgnaCloKkoAAI8BaCtKAICnAWgsSgCAGAB1YmgeKYGUfZQoaCGMJG1vZGVsLmxheWVycy40LnNlbGZfYXR0bi5xX3Byb2ouYmlhc5RoI2gJTYADhZSFlFKUaCdoKWgqSgCApwFoK0oAh6cBaCxNAAd1YmgeKYGUfZQoaCGMJG1vZGVsLmxheWVycy40LnNlbGZfYXR0bi5rX3Byb2ouYmlhc5RoI2gJS4CFlIWUUpRoJ2gpaCpKAIenAWgrSgCIpwFoLE0AAXViaB4pgZR9lChoIYwkbW9kZWwubGF5ZXJzLjQuc2VsZl9hdHRuLnZfcHJvai5iaWFzlGgjaAlLgIWUhZRSlGgnaCloKkoAiKcBaCtKAImnAWgsTQABdWJoHimBlH2UKGghjCVtb2RlbC5sYXllcnMuNC5pbnB1dF9sYXllcm5vcm0ud2VpZ2h0lGgjaAlNgAOFlIWUUpRoJ2gpaCpKAImnAWgrSgCQpwFoLE0AB3ViaB4pgZR9lChoIYwmbW9kZWwubGF5ZXJzLjQuc2VsZl9hdHRuLnFfcHJvai53ZWlnaHSUaCNoCU2AA02AA4aUhZRSlGgnaCloKkoAkKcBaCtKABDAAWgsSgCAGAB1YmgeKYGUfZQoaCGMJm1vZGVsLmxheWVycy40LnNlbGZfYXR0bi5rX3Byb2oud2VpZ2h0lGgjaAlLgE2AA4aUhZRSlGgnaCloKkoAEMABaCtKAJDDAWgsSgCAAwB1YmgeKYGUfZQoaCGMJm1vZGVsLmxheWVycy40LnNlbGZfYXR0bi52X3Byb2oud2VpZ2h0lGgjaAlLgE2AA4aUhZRSlGgnaCloKkoAkMMBaCtKABDHAWgsSgCAAwB1YmgeKYGUfZQoaCGMLm1vZGVsLmxheWVycy41LnBvc3RfYXR0ZW50aW9uX2xheWVybm9ybS53ZWlnaHSUaCNoCU2AA4WUhZRSlGgnaCloKkoAEMcBaCtKABfHAWgsTQAHdWJoHimBlH2UKGghjCNtb2RlbC5sYXllcnMuNS5tbHAuZ2F0ZV9wcm9qLndlaWdodJRoI2gJTQATTYADhpSFlFKUaCdoKWgqSgAXxwFoK0oAF0wCaCxKAACFAHViaB4pgZR9lChoIYwhbW9kZWwubGF5ZXJzLjUubWxwLnVwX3Byb2oud2VpZ2h0lGgjaAlNABNNgAOGlIWUUpRoJ2gpaCpKABdMAmgrSgAX0QJoLEoAAIUAdWJoHimBlH2UKGghjCNtb2RlbC5sYXllcnMuNS5tbHAuZG93bl9wcm9qLndlaWdodJRoI2gJTYADTQAThpSFlFKUaCdoKWgqSgAX0QJoK0oAF1YDaCxKAACFAHViaB4pgZR9lChoIYwmbW9kZWwubGF5ZXJzLjUuc2VsZl9hdHRuLm9fcHJvai53ZWlnaHSUaCNoCU2AA02AA4aUhZRSlGgnaCloKkoAF1YDaCtKAJduA2gsSgCAGAB1YmgeKYGUfZQoaCGMJG1vZGVsLmxheWVycy41LnNlbGZfYXR0bi5xX3Byb2ouYmlhc5RoI2gJTYADhZSFlFKUaCdoKWgqSgCXbgNoK0oAnm4DaCxNAAd1YmgeKYGUfZQoaCGMJG1vZGVsLmxheWVycy41LnNlbGZfYXR0bi5rX3Byb2ouYmlhc5RoI2gJS4CFlIWUUpRoJ2gpaCpKAJ5uA2grSgCfbgNoLE0AAXViaB4pgZR9lChoIYwkbW9kZWwubGF5ZXJzLjUuc2VsZl9hdHRuLnZfcHJvai5iaWFzlGgjaAlLgIWUhZRSlGgnaCloKkoAn24DaCtKAKBuA2gsTQABdWJoHimBlH2UKGghjCVtb2RlbC5sYXllcnMuNS5pbnB1dF9sYXllcm5vcm0ud2VpZ2h0lGgjaAlNgAOFlIWUUpRoJ2gpaCpKAKBuA2grSgCnbgNoLE0AB3ViaB4pgZR9lChoIYwmbW9kZWwubGF5ZXJzLjUuc2VsZl9hdHRuLnFfcHJvai53ZWlnaHSUaCNoCU2AA02AA4aUhZRSlGgnaCloKkoAp24DaCtKACeHA2gsSgCAGAB1YmgeKYGUfZQoaCGMJm1vZGVsLmxheWVycy41LnNlbGZfYXR0bi5rX3Byb2oud2VpZ2h0lGgjaAlLgE2AA4aUhZRSlGgnaCloKkoAJ4cDaCtKAKeKA2gsSgCAAwB1YmgeKYGUfZQoaCGMJm1vZGVsLmxheWVycy41LnNlbGZfYXR0bi52X3Byb2oud2VpZ2h0lGgjaAlLgE2AA4aUhZRSlGgnaCloKkoAp4oDaCtKACeOA2gsSgCAAwB1YmgeKYGUfZQoaCGMLm1vZGVsLmxheWVycy42LnBvc3RfYXR0ZW50aW9uX2xheWVybm9ybS53ZWlnaHSUaCNoCU2AA4WUhZRSlGgnaCloKkoAJ44DaCtKAC6OA2gsTQAHdWJoHimBlH2UKGghjCNtb2RlbC5sYXllcnMuNi5tbHAuZ2F0ZV9wcm9qLndlaWdodJRoI2gJTQATTYADhpSFlFKUaCdoKWgqSgAujgNoK0oALhMEaCxKAACFAHViaB4pgZR9lChoIYwhbW9kZWwubGF5ZXJzLjYubWxwLnVwX3Byb2oud2VpZ2h0lGgjaAlNABNNgAOGlIWUUpRoJ2gpaCpKAC4TBGgrSgAumARoLEoAAIUAdWJoHimBlH2UKGghjCNtb2RlbC5sYXllcnMuNi5tbHAuZG93bl9wcm9qLndlaWdodJRoI2gJTYADTQAThpSFlFKUaCdoKWgqSgAumARoK0oALh0FaCxKAACFAHViaB4pgZR9lChoIYwmbW9kZWwubGF5ZXJzLjYuc2VsZl9hdHRuLm9fcHJvai53ZWlnaHSUaCNoCU2AA02AA4aUhZRSlGgnaCloKkoALh0FaCtKAK41BWgsSgCAGAB1YmgeKYGUfZQoaCGMJG1vZGVsLmxheWVycy42LnNlbGZfYXR0bi5xX3Byb2ouYmlhc5RoI2gJTYADhZSFlFKUaCdoKWgqSgCuNQVoK0oAtTUFaCxNAAd1YmgeKYGUfZQoaCGMJG1vZGVsLmxheWVycy42LnNlbGZfYXR0bi5rX3Byb2ouYmlhc5RoI2gJS4CFlIWUUpRoJ2gpaCpKALU1BWgrSgC2NQVoLE0AAXViaB4pgZR9lChoIYwkbW9kZWwubGF5ZXJzLjYuc2VsZl9hdHRuLnZfcHJvai5iaWFzlGgjaAlLgIWUhZRSlGgnaCloKkoAtjUFaCtKALc1BWgsTQABdWJoHimBlH2UKGghjCVtb2RlbC5sYXllcnMuNi5pbnB1dF9sYXllcm5vcm0ud2VpZ2h0lGgjaAlNgAOFlIWUUpRoJ2gpaCpKALc1BWgrSgC+NQVoLE0AB3ViaB4pgZR9lChoIYwmbW9kZWwubGF5ZXJzLjYuc2VsZl9hdHRuLnFfcHJvai53ZWlnaHSUaCNoCU2AA02AA4aUhZRSlGgnaCloKkoAvjUFaCtKAD5OBWgsSgCAGAB1YmgeKYGUfZQoaCGMJm1vZGVsLmxheWVycy42LnNlbGZfYXR0bi5rX3Byb2oud2VpZ2h0lGgjaAlLgE2AA4aUhZRSlGgnaCloKkoAPk4FaCtKAL5RBWgsSgCAAwB1YmgeKYGUfZQoaCGMJm1vZGVsLmxheWVycy42LnNlbGZfYXR0bi52X3Byb2oud2VpZ2h0lGgjaAlLgE2AA4aUhZRSlGgnaCloKkoAvlEFaCtKAD5VBWgsSgCAAwB1YmgeKYGUfZQoaCGMLm1vZGVsLmxheWVycy43LnBvc3RfYXR0ZW50aW9uX2xheWVybm9ybS53ZWlnaHSUaCNoCU2AA4WUhZRSlGgnaCloKkoAPlUFaCtKAEVVBWgsTQAHdWJoHimBlH2UKGghjCNtb2RlbC5sYXllcnMuNy5tbHAuZ2F0ZV9wcm9qLndlaWdodJRoI2gJTQATTYADhpSFlFKUaCdoKWgqSgBFVQVoK0oARdoFaCxKAACFAHViaB4pgZR9lChoIYwhbW9kZWwubGF5ZXJzLjcubWxwLnVwX3Byb2oud2VpZ2h0lGgjaAlNABNNgAOGlIWUUpRoJ2gpaCpKAEXaBWgrSgBFXwZoLEoAAIUAdWJoHimBlH2UKGghjCNtb2RlbC5sYXllcnMuNy5tbHAuZG93bl9wcm9qLndlaWdodJRoI2gJTYADTQAThpSFlFKUaCdoKWgqSgBFXwZoK0oAReQGaCxKAACFAHViaB4pgZR9lChoIYwmbW9kZWwubGF5ZXJzLjcuc2VsZl9hdHRuLm9fcHJvai53ZWlnaHSUaCNoCU2AA02AA4aUhZRSlGgnaCloKkoAReQGaCtKAMX8BmgsSgCAGAB1YmgeKYGUfZQoaCGMJG1vZGVsLmxheWVycy43LnNlbGZfYXR0bi5xX3Byb2ouYmlhc5RoI2gJTYADhZSFlFKUaCdoKWgqSgDF/AZoK0oAzPwGaCxNAAd1YmgeKYGUfZQoaCGMJG1vZGVsLmxheWVycy43LnNlbGZfYXR0bi5rX3Byb2ouYmlhc5RoI2gJS4CFlIWUUpRoJ2gpaCpKAMz8BmgrSgDN/AZoLE0AAXViaB4pgZR9lChoIYwkbW9kZWwubGF5ZXJzLjcuc2VsZl9hdHRuLnZfcHJvai5iaWFzlGgjaAlLgIWUhZRSlGgnaCloKkoAzfwGaCtKAM78BmgsTQABdWJoHimBlH2UKGghjCVtb2RlbC5sYXllcnMuNy5pbnB1dF9sYXllcm5vcm0ud2VpZ2h0lGgjaAlNgAOFlIWUUpRoJ2gpaCpKAM78BmgrSgDV/AZoLE0AB3ViaB4pgZR9lChoIYwmbW9kZWwubGF5ZXJzLjcuc2VsZl9hdHRuLnFfcHJvai53ZWlnaHSUaCNoCU2AA02AA4aUhZRSlGgnaCloKkoA1fwGaCtKAFUVB2gsSgCAGAB1YmgeKYGUfZQoaCGMJm1vZGVsLmxheWVycy43LnNlbGZfYXR0bi5rX3Byb2oud2VpZ2h0lGgjaAlLgE2AA4aUhZRSlGgnaCloKkoAVRUHaCtKANUYB2gsSgCAAwB1YmgeKYGUfZQoaCGMJm1vZGVsLmxheWVycy43LnNlbGZfYXR0bi52X3Byb2oud2VpZ2h0lGgjaAlLgE2AA4aUhZRSlGgnaCloKkoA1RgHaCtKAFUcB2gsSgCAAwB1YmgeKYGUfZQoaCGMLm1vZGVsLmxheWVycy44LnBvc3RfYXR0ZW50aW9uX2xheWVybm9ybS53ZWlnaHSUaCNoCU2AA4WUhZRSlGgnaCloKkoAVRwHaCtKAFwcB2gsTQAHdWJoHimBlH2UKGghjCNtb2RlbC5sYXllcnMuOC5tbHAuZ2F0ZV9wcm9qLndlaWdodJRoI2gJTQATTYADhpSFlFKUaCdoKWgqSgBcHAdoK0oAXKEHaCxKAACFAHViaB4pgZR9lChoIYwhbW9kZWwubGF5ZXJzLjgubWxwLnVwX3Byb2oud2VpZ2h0lGgjaAlNABNNgAOGlIWUUpRoJ2gpaCpKAFyhB2grSgBcJghoLEoAAIUAdWJoHimBlH2UKGghjCNtb2RlbC5sYXllcnMuOC5tbHAuZG93bl9wcm9qLndlaWdodJRoI2gJTYADTQAThpSFlFKUaCdoKWgqSgBcJghoK0oAXKsIaCxKAACFAHViaB4pgZR9lChoIYwmbW9kZWwubGF5ZXJzLjguc2VsZl9hdHRuLm9fcHJvai53ZWlnaHSUaCNoCU2AA02AA4aUhZRSlGgnaCloKkoAXKsIaCtKANzDCGgsSgCAGAB1YmgeKYGUfZQoaCGMJG1vZGVsLmxheWVycy44LnNlbGZfYXR0bi5xX3Byb2ouYmlhc5RoI2gJTYADhZSFlFKUaCdoKWgqSgDcwwhoK0oA48MIaCxNAAd1YmgeKYGUfZQoaCGMJG1vZGVsLmxheWVycy44LnNlbGZfYXR0bi5rX3Byb2ouYmlhc5RoI2gJS4CFlIWUUpRoJ2gpaCpKAOPDCGgrSgDkwwhoLE0AAXViaB4pgZR9lChoIYwkbW9kZWwubGF5ZXJzLjguc2VsZl9hdHRuLnZfcHJvai5iaWFzlGgjaAlLgIWUhZRSlGgnaCloKkoA5MMIaCtKAOXDCGgsTQABdWJoHimBlH2UKGghjCVtb2RlbC5sYXllcnMuOC5pbnB1dF9sYXllcm5vcm0ud2VpZ2h0lGgjaAlNgAOFlIWUUpRoJ2gpaCpKAOXDCGgrSgDswwhoLE0AB3ViaB4pgZR9lChoIYwmbW9kZWwubGF5ZXJzLjguc2VsZl9hdHRuLnFfcHJvai53ZWlnaHSUaCNoCU2AA02AA4aUhZRSlGgnaCloKkoA7MMIaCtKAGzcCGgsSgCAGAB1YmgeKYGUfZQoaCGMJm1vZGVsLmxheWVycy44LnNlbGZfYXR0bi5rX3Byb2oud2VpZ2h0lGgjaAlLgE2AA4aUhZRSlGgnaCloKkoAbNwIaCtKAOzfCGgsSgCAAwB1YmgeKYGUfZQoaCGMJm1vZGVsLmxheWVycy44LnNlbGZfYXR0bi52X3Byb2oud2VpZ2h0lGgjaAlLgE2AA4aUhZRSlGgnaCloKkoA7N8IaCtKAGzjCGgsSgCAAwB1YmgeKYGUfZQoaCGMLm1vZGVsLmxheWVycy45LnBvc3RfYXR0ZW50aW9uX2xheWVybm9ybS53ZWlnaHSUaCNoCU2AA4WUhZRSlGgnaCloKkoAbOMIaCtKAHPjCGgsTQAHdWJoHimBlH2UKGghjCNtb2RlbC5sYXllcnMuOS5tbHAuZ2F0ZV9wcm9qLndlaWdodJRoI2gJTQATTYADhpSFlFKUaCdoKWgqSgBz4whoK0oAc2gJaCxKAACFAHViaB4pgZR9lChoIYwhbW9kZWwubGF5ZXJzLjkubWxwLnVwX3Byb2oud2VpZ2h0lGgjaAlNABNNgAOGlIWUUpRoJ2gpaCpKAHNoCWgrSgBz7QloLEoAAIUAdWJoHimBlH2UKGghjCNtb2RlbC5sYXllcnMuOS5tbHAuZG93bl9wcm9qLndlaWdodJRoI2gJTYADTQAThpSFlFKUaCdoKWgqSgBz7QloK0oAc3IKaCxKAACFAHViaB4pgZR9lChoIYwmbW9kZWwubGF5ZXJzLjkuc2VsZl9hdHRuLm9fcHJvai53ZWlnaHSUaCNoCU2AA02AA4aUhZRSlGgnaCloKkoAc3IKaCtKAPOKCmgsSgCAGAB1YmgeKYGUfZQoaCGMJG1vZGVsLmxheWVycy45LnNlbGZfYXR0bi5xX3Byb2ouYmlhc5RoI2gJTYADhZSFlFKUaCdoKWgqSgDzigpoK0oA+ooKaCxNAAd1YmgeKYGUfZQoaCGMJG1vZGVsLmxheWVycy45LnNlbGZfYXR0bi5rX3Byb2ouYmlhc5RoI2gJS4CFlIWUUpRoJ2gpaCpKAPqKCmgrSgD7igpoLE0AAXViaB4pgZR9lChoIYwkbW9kZWwubGF5ZXJzLjkuc2VsZl9hdHRuLnZfcHJvai5iaWFzlGgjaAlLgIWUhZRSlGgnaCloKkoA+4oKaCtKAPyKCmgsTQABdWJoHimBlH2UKGghjCVtb2RlbC5sYXllcnMuOS5pbnB1dF9sYXllcm5vcm0ud2VpZ2h0lGgjaAlNgAOFlIWUUpRoJ2gpaCpKAPyKCmgrSgADiwpoLE0AB3ViaB4pgZR9lChoIYwmbW9kZWwubGF5ZXJzLjkuc2VsZl9hdHRuLnFfcHJvai53ZWlnaHSUaCNoCU2AA02AA4aUhZRSlGgnaCloKkoAA4sKaCtKAIOjCmgsSgCAGAB1YmgeKYGUfZQoaCGMJm1vZGVsLmxheWVycy45LnNlbGZfYXR0bi5rX3Byb2oud2VpZ2h0lGgjaAlLgE2AA4aUhZRSlGgnaCloKkoAg6MKaCtKAAOnCmgsSgCAAwB1YmgeKYGUfZQoaCGMJm1vZGVsLmxheWVycy45LnNlbGZfYXR0bi52X3Byb2oud2VpZ2h0lGgjaAlLgE2AA4aUhZRSlGgnaCloKkoAA6cKaCtKAIOqCmgsSgCAAwB1YmgeKYGUfZQoaCGMGW1vZGVsLmVtYmVkX3Rva2Vucy53ZWlnaHSUaCNoCUqAUQIATYADhpSFlFKUaCdoKWgqSgCDqgpoK0oAA+UaaCxKAIA6EHViZXUu'], 'load_format': 'flattened_bucket', 'flush_cache': False, 'weight_version': '1'}
    send_request(url, payload)
    print("request3")

if __name__ == "__main__":
    main()